{
  "<unk>": 0,
  "<s>": 1,
  "</s>": 2,
  "<0x0A>": 3,
  "<0x88>": 4,
  "<0x9B>": 5,
  "<0xE2>": 6,
  "\u2581\u2581": 7,
  "\u2581t": 8,
  "er": 9,
  "in": 10,
  "\u2581a": 11,
  "en": 12,
  "on": 13,
  "\u2581th": 14,
  "es": 15,
  "\u2581\u2581\u2581\u2581": 16,
  "\u2581s": 17,
  "\u2581d": 18,
  "at": 19,
  "or": 20,
  "an": 21,
  "\u2581c": 22,
  "is": 23,
  "re": 24,
  "it": 25,
  "\u2581the": 26,
  "ar": 27,
  "le": 28,
  "\u2581w": 29,
  "\u2581p": 30,
  "ou": 31,
  "al": 32,
  "\u2581f": 33,
  "\u2581m": 34,
  "ed": 35,
  "\u2581o": 36,
  "\u2581b": 37,
  "om": 38,
  "ion": 39,
  "ing": 40,
  "ic": 41,
  "as": 42,
  "el": 43,
  "ent": 44,
  "\u2581in": 45,
  "\u2581h": 46,
  "nd": 47,
  "et": 48,
  "\u2581l": 49,
  "\u2581n": 50,
  "st": 51,
  "\u2581to": 52,
  "ch": 53,
  "\u2581I": 54,
  "ro": 55,
  "\u2581\u2581\u2581\u2581\u2581\u2581\u2581\u2581": 56,
  "il": 57,
  "\u2581of": 58,
  "de": 59,
  "ct": 60,
  "\u2581(": 61,
  "am": 62,
  "\u2581C": 63,
  "\u2581de": 64,
  "\u2581S": 65,
  "\u2581u": 66,
  "\u2581A": 67,
  "\u2581\\": 68,
  "\u2581e": 69,
  "\u2581and": 70,
  "\u2581T": 71,
  "ol": 72,
  "\u2581v": 73,
  "im": 74,
  "ot": 75,
  "ad": 76,
  "ut": 77,
  "\u2581g": 78,
  "em": 79,
  "ur": 80,
  "id": 81,
  "\u2581*": 82,
  "ig": 83,
  "ra": 84,
  "\u2581re": 85,
  "\u2581is": 86,
  "qu": 87,
  "ow": 88,
  "\u2581M": 89,
  "est": 90,
  "\u2581y": 91,
  "se": 92,
  "ve": 93,
  "ce": 94,
  "ie": 95,
  "un": 96,
  "\u2581P": 97,
  "\u2581B": 98,
  "ag": 99,
  "ul": 100,
  "\u2581=": 101,
  "he": 102,
  "end": 103,
  "ode": 104,
  "ter": 105,
  "ment": 106,
  "os": 107,
  "\u2581D": 108,
  "if": 109,
  "ation": 110,
  "\u2581for": 111,
  "\u2581r": 112,
  "\u2581L": 113,
  "\u2581you": 114,
  "\u2581be": 115,
  "ly": 116,
  "ver": 117,
  "ab": 118,
  "te": 119,
  "\u2581it": 120,
  "\u2581on": 121,
  "ri": 122,
  "us": 123,
  "\u2581\"": 124,
  "\u2581wh": 125,
  "\u2581con": 126,
  "\u2581H": 127,
  "\u2581st": 128,
  "ir": 129,
  "\u2581E": 130,
  "\u2581F": 131,
  "ck": 132,
  "\u2581an": 133,
  "th": 134,
  "eg": 135,
  "ay": 136,
  "ith": 137,
  "\u2581R": 138,
  "ist": 139,
  "and": 140,
  "\u2581that": 141,
  "\u2581al": 142,
  "\u2581$": 143,
  "\u2581#": 144,
  "od": 145,
  "um": 146,
  "\u2581W": 147,
  "\u2581G": 148,
  "ate": 149,
  "ess": 150,
  "\u2581N": 151,
  "ere": 152,
  "pp": 153,
  "\u2581as": 154,
  "\u2581se": 155,
  "\u2581pro": 156,
  "\u2581with": 157,
  "pe": 158,
  "\u2581k": 159,
  "ers": 160,
  "pt": 161,
  ");": 162,
  "lo": 163,
  "\u2581\u2581\u2581\u2581\u2581": 164,
  "ame": 165,
  "\u2581Com": 166,
  "ia": 167,
  "ant": 168,
  "\u2581la": 169,
  "\u2581{": 170,
  "\u2581en": 171,
  "ction": 172,
  "\u2581ex": 173,
  "ld": 174,
  "ub": 175,
  "\u2581j": 176,
  "la": 177,
  "ue": 178,
  "\u2581J": 179,
  "\u2581do": 180,
  "\u2581O": 181,
  "\u2581qu": 182,
  "iv": 183,
  "ort": 184,
  "art": 185,
  "\u2581un": 186,
  "\u2581this": 187,
  "ke": 188,
  "\u2581ha": 189,
  "\u2581-": 190,
  "out": 191,
  "\u2581The": 192,
  "\u2581not": 193,
  "ill": 194,
  "\u2581le": 195,
  "ci": 196,
  "rom": 197,
  "ine": 198,
  "op": 199,
  "\u2581\u2581\u2581\u2581\u2581\u2581\u2581\u2581\u2581\u2581\u2581\u2581\u2581\u2581\u2581\u2581": 200,
  "begin": 201,
  "ass": 202,
  "iz": 203,
  ").": 204,
  "og": 205,
  "\u2581or": 206,
  "\u2581was": 207,
  "\u2581at": 208,
  "our": 209,
  "\u2581i": 210,
  "ain": 211,
  "\u2581K": 212,
  "\u2581V": 213,
  "ge": 214,
  "\u2581su": 215,
  "ap": 216,
  "age": 217,
  "ne": 218,
  "av": 219,
  "xt": 220,
  "ore": 221,
  "ile": 222,
  "--": 223,
  "\u2581by": 224,
  "li": 225,
  "ath": 226,
  "ber": 227,
  "ach": 228,
  "all": 229,
  "\u2581Th": 230,
  "ult": 231,
  "\u2581}": 232,
  "\u2581U": 233,
  "\u2581us": 234,
  "\u2581z": 235,
  "\u2581have": 236,
  "lic": 237,
  "\u2581can": 238,
  "tr": 239,
  "com": 240,
  "),": 241,
  "\u2581In": 242,
  "ind": 243,
  "ell": 244,
  "\u2581from": 245,
  "to": 246,
  "\u2581[": 247,
  "able": 248,
  "ost": 249,
  "\u2581ch": 250,
  "ect": 251,
  "ight": 252,
  "int": 253,
  "\u2581'": 254,
  "\u2581are": 255,
  "\u2581im": 256,
  "\u2581sh": 257,
  "\u2581<": 258,
  "\u2581An": 259,
  "ata": 260,
  "ire": 261,
  "\u2581tr": 262,
  "con": 263,
  "ord": 264,
  "ity": 265,
  "ard": 266,
  "\u2581\u2581\u2581\u2581\u2581\u2581": 267,
  "\u2581he": 268,
  "\u2581but": 269,
  "oc": 270,
  "\u2581pr": 271,
  "ure": 272,
  "per": 273,
  "ack": 274,
  "ong": 275,
  "ans": 276,
  "ple": 277,
  "\u2581des": 278,
  "ok": 279,
  "orm": 280,
  "wer": 281,
  "ak": 282,
  "pr": 283,
  "ase": 284,
  "\u2581el": 285,
  "ph": 286,
  "ac": 287,
  "\u2581und": 288,
  "\u2581ar": 289,
  "\u2581if": 290,
  "ud": 291,
  "ps": 292,
  "ite": 293,
  "ble": 294,
  "pl": 295,
  "ive": 296,
  "ang": 297,
  "ens": 298,
  "\u2581so": 299,
  "so": 300,
  "ast": 301,
  "ru": 302,
  "ies": 303,
  "\u2581:": 304,
  "ov": 305,
  "\u2581my": 306,
  "\u2581we": 307,
  "\u2581me": 308,
  "nt": 309,
  "\u2581ad": 310,
  "\u2581your": 311,
  "are": 312,
  "\u2581all": 313,
  "ff": 314,
  "io": 315,
  "ime": 316,
  "\u2581er": 317,
  "\u2581which": 318,
  "ome": 319,
  "\u2581par": 320,
  "\u2581Y": 321,
  "\",": 322,
  "ft": 323,
  "ial": 324,
  "cc": 325,
  "ound": 326,
  "\u2581res": 327,
  "eth": 328,
  "\u2581app": 329,
  "\u2581St": 330,
  "ice": 331,
  "\u2581am": 332,
  "act": 333,
  "\u2581del": 334,
  "ated": 335,
  "ier": 336,
  "\u2581\u2581\u2581\u2581\u2581\u2581\u2581\u2581\u2581\u2581\u2581\u2581": 337,
  "\u2581ab": 338,
  "ally": 339,
  "..": 340,
  "port": 341,
  "ik": 342,
  "\u2581per": 343,
  "\u2581cont": 344,
  "ll": 345,
  "_{": 346,
  "one": 347,
  "\u2581di": 348,
  "ary": 349,
  "ition": 350,
  "ma": 351,
  "\u2581lo": 352,
  "\u2581val": 353,
  "\u2581Q": 354,
  "ran": 355,
  "ence": 356,
  "\u2581work": 357,
  "ip": 358,
  "\u2581&": 359,
  "\u2581his": 360,
  "\u2581use": 361,
  "der": 362,
  "\u2581Answer": 363,
  "\u2581will": 364,
  "ize": 365,
  "\u2581Ch": 366,
  "\u2581get": 367,
  "ide": 368,
  "ous": 369,
  "ink": 370,
  "ec": 371,
  "ug": 372,
  "form": 373,
  "oug": 374,
  "\u2581no": 375,
  "cl": 376,
  "\u2581ro": 377,
  "\u2581one": 378,
  "tt": 379,
  "cri": 380,
  "\u2581up": 381,
  "(\"": 382,
  "we": 383,
  "ory": 384,
  "ery": 385,
  "str": 386,
  "ob": 387,
  "ian": 388,
  "\u2581out": 389,
  "\u2581pl": 390,
  "\u2581new": 391,
  "\u2581+": 392,
  "ry": 393,
  "oth": 394,
  "ther": 395,
  "\u2581var": 396,
  "\u2581would": 397,
  "tern": 398,
  "text": 399,
  "\u2581there": 400,
  "ish": 401,
  "\u2581set": 402,
  "\u2581@": 403,
  "\u2581te": 404,
  "ex": 405,
  "\u2581return": 406,
  "ail": 407,
  "\u2581any": 408,
  "\u2581It": 409,
  "\u2581function": 410,
  "{\\": 411,
  "',": 412,
  "ale": 413,
  "\u2581when": 414,
  "ib": 415,
  "\u2581go": 416,
  "ance": 417,
  "\u2581had": 418,
  "\u2581Qu": 419,
  "\u2581comp": 420,
  "\u2581has": 421,
  "\u2581pre": 422,
  "ener": 423,
  "\u2581part": 424,
  "elf": 425,
  "\u2581die": 426,
  "\u2581like": 427,
  "ray": 428,
  "\u2581dis": 429,
  "\u2581man": 430,
  "rit": 431,
  "\u2581then": 432,
  "\u2581class": 433,
  "pro": 434,
  "\u2581using": 435,
  "eb": 436,
  "\u2581code": 437,
  "own": 438,
  "\u2581some": 439,
  "ces": 440,
  "\u2581$\\": 441,
  "lect": 442,
  "\u2581au": 443,
  "\u2581col": 444,
  "up": 445,
  "ons": 446,
  "\u2581add": 447,
  "val": 448,
  "ount": 449,
  "les": 450,
  "vent": 451,
  "\u2581\u2581\u2581\u2581\u2581\u2581\u2581\u2581\u2581\u2581\u2581\u2581\u2581": 452,
  "\u2581Z": 453,
  "In": 454,
  "row": 455,
  "ear": 456,
  "ations": 457,
  "ah": 458,
  "que": 459,
  "ank": 460,
  "\u2581sp": 461,
  "----": 462,
  "ew": 463,
  "ags": 464,
  "ann": 465,
  "ert": 466,
  "ace": 467,
  "\u2581need": 468,
  "ien": 469,
  "ough": 470,
  "ern": 471,
  "\u2581what": 472,
  "\u2581Ar": 473,
  "ml": 474,
  "bo": 475,
  "az": 476,
  "erm": 477,
  "\u2581Al": 478,
  "led": 479,
  "ten": 480,
  "set": 481,
  "\u2581comm": 482,
  "sh": 483,
  "\u2581/": 484,
  "\u2581data": 485,
  "ose": 486,
  "ven": 487,
  "St": 488,
  "...": 489,
  "yst": 490,
  "ick": 491,
  "par": 492,
  "\u2581want": 493,
  "ote": 494,
  "\u2581gr": 495,
  "\u2581.": 496,
  "und": 497,
  "\u2581only": 498,
  "\u2581sa": 499,
  "ely": 500,
  "vers": 501,
  "\u2581ent": 502,
  "))": 503,
  "\u2581mod": 504,
  "\u2581should": 505,
  "ement": 506,
  "\u2581form": 507,
  "\u2581also": 508,
  "\u2581sc": 509,
  "ings": 510,
  "\u2581You": 511,
  "\u2581|": 512,
  "\u2581were": 513,
  "ise": 514,
  "\u2581they": 515,
  "\u2581De": 516,
  "ond": 517,
  "\u2581sol": 518,
  "\u2581more": 519,
  "\u2581her": 520,
  "\u2581_": 521,
  "\u2581cre": 522,
  "\u2581This": 523,
  "ze": 524,
  "ado": 525,
  "ull": 526,
  "ger": 527,
  "be": 528,
  "\u2581other": 529,
  "ution": 530,
  "ict": 531,
  "\u2581how": 532,
  "\u2581x": 533,
  "\u2581Se": 534,
  "\u2581che": 535,
  "\u2581just": 536,
  "ange": 537,
  "ific": 538,
  "ree": 539,
  "}}": 540,
  "\u2581time": 541,
  "app": 542,
  "\u2581file": 543,
  "ark": 544,
  "ical": 545,
  "\u2581first": 546,
  "\u2581int": 547,
  "\u2581He": 548,
  "ta": 549,
  "ors": 550,
  "\u2581ag": 551,
  "\u2581does": 552,
  "yn": 553,
  "read": 554,
  "ual": 555,
  "\u2581Le": 556,
  "ys": 557,
  "\u2581em": 558,
  "over": 559,
  "\u2581If": 560,
  "\u2581spe": 561,
  "ym": 562,
  "\u2581them": 563,
  "\u2581into": 564,
  "\u2581\u2581\u2581\u2581\u2581\u2581\u2581\u2581\u2581\u2581": 565,
  "\u2581its": 566,
  "ese": 567,
  "\u2581public": 568,
  "of": 569,
  "\u2581over": 570,
  "\u2581way": 571,
  "ica": 572,
  "itt": 573,
  "\u2581where": 574,
  "org": 575,
  "ient": 576,
  "ove": 577,
  "\u2581value": 578,
  "^{": 579,
  "ref": 580,
  "ied": 581,
  "\u2581stat": 582,
  "fig": 583,
  "me": 584,
  "\u2581inter": 585,
  "roid": 586,
  "ater": 587,
  "\u2581their": 588,
  "\u2581bet": 589,
  "}\\": 590,
  "\u2581sub": 591,
  "\u2581don": 592,
  "ty": 593,
  "\u2581try": 594,
  "\u2581Pro": 595,
  "\u2581tra": 596,
  "\u2581same": 597,
  "\u2581two": 598,
  "old": 599,
  "let": 600,
  "sp": 601,
  "\u2581av": 602,
  "bre": 603,
  "ey": 604,
  "\u2581could": 605,
  "\u2581acc": 606,
  "ays": 607,
  "cre": 608,
  "si": 609,
  "ues": 610,
  "}$": 611,
  "\u2581act": 612,
  "\u2581bo": 613,
  "\u2581about": 614,
  "land": 615,
  "mer": 616,
  "\u2581list": 617,
  "cal": 618,
  "\u2581import": 619,
  "na": 620,
  "\u2581who": 621,
  "\u2581error": 622,
  "\u2581X": 623,
  "ator": 624,
  "\u2581been": 625,
  "\u2581run": 626,
  "pos": 627,
  "\u2581cl": 628,
  "**": 629,
  "ular": 630,
  "\u2581know": 631,
  "\u2581see": 632,
  "\u2581him": 633,
  "ning": 634,
  "ates": 635,
  "fore": 636,
  "ions": 637,
  "ute": 638,
  "\u2581rem": 639,
  "\u2581Mar": 640,
  "ner": 641,
  "\u2581under": 642,
  "rib": 643,
  "\u2581As": 644,
  "\u2581end": 645,
  "ember": 646,
  "\u2581att": 647,
  "ina": 648,
  "son": 649,
  "\u2581follow": 650,
  "\u2581rel": 651,
  "\u2581So": 652,
  "\u2581look": 653,
  "abel": 654,
  "\u2581problem": 655,
  "\u2581van": 656,
  "co": 657,
  "pon": 658,
  "ca": 659,
  "amb": 660,
  "},": 661,
  "\u2581result": 662,
  "\u2581may": 663,
  "Re": 664,
  "):": 665,
  "\u2581And": 666,
  "red": 667,
  "\u2581How": 668,
  "po": 669,
  "att": 670,
  "oup": 671,
  "ced": 672,
  "\u2581type": 673,
  "\u2581than": 674,
  "\u2581cons": 675,
  "\u2581question": 676,
  "igh": 677,
  "ins": 678,
  "den": 679,
  "\u2581da": 680,
  "\u2581For": 681,
  "\u2581ra": 682,
  "frac": 683,
  "\u2581after": 684,
  "}{": 685,
  "\u2581method": 686,
  "amp": 687,
  "ash": 688,
  "\u2581rec": 689,
  "\u2581differ": 690,
  "ax": 691,
  "Con": 692,
  "its": 693,
  "man": 694,
  "che": 695,
  "IN": 696,
  "ages": 697,
  "fo": 698,
  "br": 699,
  "\u2581she": 700,
  "Pro": 701,
  "eta": 702,
  "log": 703,
  "arg": 704,
  "\u2581--": 705,
  "(\\": 706,
  "min": 707,
  "\u2581line": 708,
  "ics": 709,
  "\u2581object": 710,
  "\u2581But": 711,
  "\u2581case": 712,
  "\u2581make": 713,
  "\u2581pass": 714,
  ".\"": 715,
  "no": 716,
  "ating": 717,
  "ato": 718,
  "line": 719,
  "\u2581Ex": 720,
  "\u2581ass": 721,
  "\u2581vers": 722,
  "other": 723,
  "ative": 724,
  "\u2581los": 725,
  "wn": 726,
  "\u2581answer": 727,
  "\u2581let": 728,
  "\u2581pe": 729,
  "ents": 730,
  "\u2581fe": 731,
  "ince": 732,
  "ider": 733,
  "ows": 734,
  "\u2581test": 735,
  "\u2581here": 736,
  "\u2581call": 737,
  "\u2581pol": 738,
  "\u2581back": 739,
  "Ex": 740,
  "ress": 741,
  "ST": 742,
  "ried": 743,
  "\u2581did": 744,
  "ting": 745,
  "\u2581El": 746,
  ")$": 747,
  "lace": 748,
  "right": 749,
  "ren": 750,
  "\u2581each": 751,
  "cy": 752,
  "\u2581%": 753,
  "\u2581ac": 754,
  "\u2581por": 755,
  "ames": 756,
  "\u2581Con": 757,
  "\u2581off": 758,
  "\u2581find": 759,
  "\u2581now": 760,
  "work": 761,
  "ational": 762,
  "dd": 763,
  "List": 764,
  "urs": 765,
  "ake": 766,
  "\u2581point": 767,
  "\u2581trans": 768,
  "\u2581co": 769,
  "\u2581read": 770,
  "\u2581used": 771,
  "eter": 772,
  "oun": 773,
  "ined": 774,
  "\u2581such": 775,
  "\u2581Is": 776,
  "ful": 777,
  "\u2581dist": 778,
  "\u2581bu": 779,
  "Cont": 780,
  "\u2581prov": 781,
  "ward": 782,
  "erson": 783,
  "anks": 784,
  "wh": 785,
  "not": 786,
  "\u2581We": 787,
  "ka": 788,
  "atur": 789,
  "als": 790,
  "\u2581bel": 791,
  "fr": 792,
  "\u2581example": 793,
  "\u2581incl": 794,
  "amil": 795,
  "\u2581string": 796,
  "\u2581think": 797,
  "Th": 798,
  "\u2581Fran": 799,
  "\u2581number": 800,
  "\u2581si": 801,
  "imes": 802,
  "my": 803,
  "ler": 804,
  "\u2581hand": 805,
  "\u2581because": 806,
  "this": 807,
  "\u2581start": 808,
  "\u2581war": 809,
  "\u2581help": 810,
  "ts": 811,
  "\u2581char": 812,
  "\u2581ph": 813,
  "\u2581min": 814,
  "--------": 815,
  "els": 816,
  "\u2581Sh": 817,
  "any": 818,
  "];": 819,
  "ique": 820,
  "da": 821,
  "ef": 822,
  "gram": 823,
  "\u2581ind": 824,
  "\u2581post": 825,
  "\u2581dep": 826,
  "],": 827,
  "\u2581>": 828,
  "\u2581very": 829,
  "\u2581array": 830,
  "lication": 831,
  "\u2581different": 832,
  "\u2581check": 833,
  "\u2581fr": 834,
  "\u2581Er": 835,
  "\u2581text": 836,
  "\u2581every": 837,
  "Ar": 838,
  "\u2581before": 839,
  "\u2581fin": 840,
  "\u2581these": 841,
  "\u2581det": 842,
  "\u2581je": 843,
  "ats": 844,
  "\u2581again": 845,
  "Ch": 846,
  "ween": 847,
  "for": 848,
  "cial": 849,
  "\u2581Par": 850,
  "ny": 851,
  "ract": 852,
  "\u2581supp": 853,
  "ased": 854,
  "lection": 855,
  "air": 856,
  "\u2581long": 857,
  "\u2581second": 858,
  "ually": 859,
  "ines": 860,
  "\u2581found": 861,
  "ength": 862,
  "yp": 863,
  "ead": 864,
  "\u2581log": 865,
  "new": 866,
  "go": 867,
  "ody": 868,
  "\u2581son": 869,
  "ero": 870,
  "ved": 871,
  "sub": 872,
  "\u2581right": 873,
  "view": 874,
  "\u2581following": 875,
  "\u2581said": 876,
  "ott": 877,
  "ars": 878,
  "$.": 879,
  "\u2581br": 880,
  "yle": 881,
  "use": 882,
  "\u2581show": 883,
  "\u2581direct": 884,
  "ms": 885,
  "\u2581exp": 886,
  "\u2581Be": 887,
  "Com": 888,
  "mp": 889,
  "MA": 890,
  "ister": 891,
  "\u2581well": 892,
  "ayout": 893,
  "ature": 894,
  "ivers": 895,
  "zy": 896,
  "\u2581met": 897,
  "une": 898,
  "yth": 899,
  "Type": 900,
  "\u2581element": 901,
  "mod": 902,
  "\u2581between": 903,
  "cept": 904,
  "\u2581through": 905,
  "\u2581while": 906,
  "\u2581On": 907,
  "the": 908,
  "\u2581something": 909,
  "\u2581most": 910,
  "sc": 911,
  "\u2581car": 912,
  "\u2581sm": 913,
  "left": 914,
  "va": 915,
  "\u2581true": 916,
  "($": 917,
  "\u2581much": 918,
  "\u2581New": 919,
  "\u2581proper": 920,
  "ited": 921,
  "ices": 922,
  "The": 923,
  "\u2581?": 924,
  "fl": 925,
  "ender": 926,
  "way": 927,
  "\u2581even": 928,
  "\u2581Pr": 929,
  "emb": 930,
  "\u2581table": 931,
  "\u2581equ": 932,
  "part": 933,
  "ify": 934,
  "ene": 935,
  "\u2581mon": 936,
  "\u2581dec": 937,
  "\u2581still": 938,
  "\u2581Tr": 939,
  "ism": 940,
  "by": 941,
  "raw": 942,
  "\u2581med": 943,
  "\u2581comple": 944,
  "\u2581art": 945,
  "ron": 946,
  "\u2581My": 947,
  "\u2581down": 948,
  "back": 949,
  "$,": 950,
  "\u2581year": 951,
  "pi": 952,
  "\u2581Gr": 953,
  "ream": 954,
  "\u2581rep": 955,
  "bf": 956,
  "inter": 957,
  "\u2581being": 958,
  "\".": 959,
  "label": 960,
  "\u2581cent": 961,
  "bar": 962,
  "ante": 963,
  "ana": 964,
  "__": 965,
  "\u2581solution": 966,
  "\u2581fl": 967,
  "\u2581create": 968,
  "unt": 969,
  "ason": 970,
  "ference": 971,
  "SE": 972,
  "\u2581non": 973,
  "ane": 974,
  "\u2581ins": 975,
  "ader": 976,
  "_{\\": 977,
  "\u2581main": 978,
  "\u2581\u2581\u2581\u2581\u2581\u2581\u2581\u2581\u2581\u2581\u2581\u2581\u2581\u2581": 979,
  "\u2581There": 980,
  "\u2581pour": 981,
  "lish": 982,
  "\u2581\u2581\u2581": 983,
  "ower": 984,
  "uc": 985,
  "\u2581else": 986,
  "equ": 987,
  "ets": 988,
  "ident": 989,
  ".,": 990,
  "ock": 991,
  ",\"": 992,
  "\u2581vol": 993,
  "\u2581fo": 994,
  "\u2581Car": 995,
  "ral": 996,
  "\u2581play": 997,
  "ouse": 998,
  "ically": 999,
  "\u2581contain": 1000,
  "\u2581both": 1001,
  "\u2581open": 1002,
  "\u2581What": 1003,
  "fe": 1004,
  "reg": 1005,
  "\u2581without": 1006,
  "vis": 1007,
  "\u2581word": 1008,
  "\u2581change": 1009,
  "\u2581works": 1010,
  "\u2581ge": 1011,
  "\u2581event": 1012,
  "word": 1013,
  "rem": 1014,
  "\u2581field": 1015,
  "ving": 1016,
  "\u2581our": 1017,
  "\u2581oper": 1018,
  "def": 1019,
  "\u2581made": 1020,
  "px": 1021,
  "\u2581men": 1022,
  "rm": 1023,
  "cent": 1024,
  "list": 1025,
  "To": 1026,
  "\u2581To": 1027,
  "\u2581mar": 1028,
  "value": 1029,
  "\u2581Br": 1030,
  "\u2581mult": 1031,
  "\u2581view": 1032,
  "fil": 1033,
  "\u2581good": 1034,
  "\u2581many": 1035,
  "ben": 1036,
  "\u2581system": 1037,
  "ino": 1038,
  "\u2581another": 1039,
  "\u2581rest": 1040,
  "\u2581might": 1041,
  "\u2581order": 1042,
  "})": 1043,
  "ett": 1044,
  "\u2581sign": 1045,
  "elle": 1046,
  "\u2581trying": 1047,
  "\u2581page": 1048,
  "\u2581must": 1049,
  "\u2581values": 1050,
  "ible": 1051,
  "].": 1052,
  "\u2581program": 1053,
  "\u2581say": 1054,
  "velop": 1055,
  "\u2581select": 1056,
  "\u2581last": 1057,
  "\u2581pop": 1058,
  "}.": 1059,
  "\u2581doesn": 1060,
  "\u2581term": 1061,
  ".)": 1062,
  "ling": 1063,
  "ables": 1064,
  "\u2581sure": 1065,
  "\u2581real": 1066,
  "\u2581current": 1067,
  "\u2581Pl": 1068,
  "cho": 1069,
  "ments": 1070,
  "ots": 1071,
  "\u2581exist": 1072,
  "do": 1073,
  "\u2581inform": 1074,
  "ush": 1075,
  "\u2581Ge": 1076,
  "\u2581high": 1077,
  "\u2581input": 1078,
  "box": 1079,
  "\u2581ste": 1080,
  "\u2581local": 1081,
  "Im": 1082,
  "\u2581process": 1083,
  "ized": 1084,
  "\u2581column": 1085,
  "\u2581best": 1086,
  "aster": 1087,
  "\u2581prim": 1088,
  "\u2581model": 1089,
  "\u2581those": 1090,
  "ities": 1091,
  "\u2581Am": 1092,
  "\u2581own": 1093,
  "Value": 1094,
  "\u2581,": 1095,
  "\u2581Te": 1096,
  "\u2581stud": 1097,
  "\u2581um": 1098,
  "ille": 1099,
  "\u2581put": 1100,
  "gy": 1101,
  "\u2581When": 1102,
  "\u2581div": 1103,
  "ants": 1104,
  "\u2581Do": 1105,
  "\u2581No": 1106,
  "mathcal": 1107,
  "ade": 1108,
  "ense": 1109,
  "\u2581row": 1110,
  "\u2581possible": 1111,
  "\u2581since": 1112,
  "\u2581Bo": 1113,
  "ctions": 1114,
  "\u2581ide": 1115,
  "\u2581correct": 1116,
  "ves": 1117,
  "\u2581output": 1118,
  "ared": 1119,
  "\\\\": 1120,
  "\u2581image": 1121,
  "ures": 1122,
  "ium": 1123,
  "ends": 1124,
  "\u2581Ab": 1125,
  "ether": 1126,
  "ns": 1127,
  "ki": 1128,
  "\u2581working": 1129,
  "\u2581Then": 1130,
  "key": 1131,
  "ople": 1132,
  "\u2581match": 1133,
  "\u2581require": 1134,
  "alt": 1135,
  "\u2581vis": 1136,
  "\u2581bl": 1137,
  "\u2581called": 1138,
  "Item": 1139,
  "ura": 1140,
  "\u2581request": 1141,
  "\u2581port": 1142,
  "\u2581instead": 1143,
  "=\\": 1144,
  "ume": 1145,
  "\u2581why": 1146,
  "rist": 1147,
  "\u2581person": 1148,
  "\u2581...": 1149,
  "\u2581private": 1150,
  "\u2581tot": 1151,
  "pha": 1152,
  "ift": 1153,
  "\u2581old": 1154,
  "\u2581above": 1155,
  "ks": 1156,
  "\u2581come": 1157,
  "\u2581$$": 1158,
  "\u2581build": 1159,
  "ito": 1160,
  "\u2581consider": 1161,
  "App": 1162,
  ",\\": 1163,
  "comm": 1164,
  "ground": 1165,
  "\u2581place": 1166,
  "By": 1167,
  "\u2581project": 1168,
  "ences": 1169,
  "\u2581files": 1170,
  "cz": 1171,
  "ivity": 1172,
  "\u2581prob": 1173,
  "\u2581sk": 1174,
  "atal": 1175,
  "irc": 1176,
  "\u2581bre": 1177,
  "sum": 1178,
  "path": 1179,
  "\u2581too": 1180,
  "\u2581Gu": 1181,
  "\u2581false": 1182,
  "ood": 1183,
  "\u00e8s": 1184,
  "\u2581enc": 1185,
  "bol": 1186,
  "order": 1187,
  "\u2581mean": 1188,
  "itor": 1189,
  "\u2581state": 1190,
  "enn": 1191,
  "bin": 1192,
  "Er": 1193,
  "Mod": 1194,
  "oz": 1195,
  "\u2581won": 1196,
  "\u2581fact": 1197,
  "\u2581cap": 1198,
  "}(": 1199,
  "ither": 1200,
  "ales": 1201,
  "ross": 1202,
  "\u2581take": 1203,
  "rix": 1204,
  "ases": 1205,
  "\u2581access": 1206,
  "ization": 1207,
  "ball": 1208,
  "}^": 1209,
  "af": 1210,
  "\u2581ref": 1211,
  ")\\": 1212,
  "\u2581expect": 1213,
  "bert": 1214,
  "ters": 1215,
  "\u2581Ed": 1216,
  "apt": 1217,
  "\u2581size": 1218,
  "face": 1219,
  "tes": 1220,
  "\u2581left": 1221,
  "df": 1222,
  "\u2581All": 1223,
  "\u2581At": 1224,
  "\u2581cr": 1225,
  "Qu": 1226,
  "\u2581given": 1227,
  "\u2581final": 1228,
  "itions": 1229,
  "\u2581perform": 1230,
  "\u2581That": 1231,
  "\u2581present": 1232,
  "duct": 1233,
  "ric": 1234,
  "bl": 1235,
  "idd": 1236,
  "oss": 1237,
  "\u2581three": 1238,
  "\u2581far": 1239,
  "\u2581Not": 1240,
  "\u2581little": 1241,
  "dis": 1242,
  "ati": 1243,
  "\u2581able": 1244,
  "less": 1245,
  "\u2581path": 1246,
  "\u2581pres": 1247,
  "lose": 1248,
  "PI": 1249,
  "time": 1250,
  "ige": 1251,
  "ams": 1252,
  "\u2581Cl": 1253,
  "ails": 1254,
  "ii": 1255,
  "pen": 1256,
  "cel": 1257,
  "\u2581sl": 1258,
  "\u2581top": 1259,
  "ides": 1260,
  "cd": 1261,
  "\u2581better": 1262,
  "\u2581load": 1263,
  "\u2581ce": 1264,
  "\u2581fa": 1265,
  "\u2581John": 1266,
  "\u2581Bar": 1267,
  "ness": 1268,
  "cer": 1269,
  "\u2581Here": 1270,
  "ret": 1271,
  "rt": 1272,
  "\u2581understand": 1273,
  "her": 1274,
  "\u2581child": 1275,
  "\u2581cert": 1276,
  "ison": 1277,
  "\u2581variable": 1278,
  "DE": 1279,
  "rs": 1280,
  "\u2581really": 1281,
  "ba": 1282,
  "\u2581Ber": 1283,
  "\u2581She": 1284,
  "\u2581plus": 1285,
  "ope": 1286,
  "\u2581count": 1287,
  "ME": 1288,
  "\u2581support": 1289,
  "\u2581people": 1290,
  "\u2581already": 1291,
  "Tr": 1292,
  "\u2581done": 1293,
  "dem": 1294,
  "size": 1295,
  "alpha": 1296,
  "\u2581disc": 1297,
  "\u2581Man": 1298,
  "\u2581stand": 1299,
  "\u2581group": 1300,
  "\u2581small": 1301,
  "\u2581mag": 1302,
  "\u2581default": 1303,
  "\u2581single": 1304,
  "link": 1305,
  "\u2581ear": 1306,
  "ilar": 1307,
  "****": 1308,
  "\u2581fix": 1309,
  "ley": 1310,
  "ission": 1311,
  "itch": 1312,
  "\u2581always": 1313,
  "\u2581head": 1314,
  "\u2581ing": 1315,
  "ha": 1316,
  "\u2581mov": 1317,
  "ette": 1318,
  "ily": 1319,
  "\u2581got": 1320,
  "iled": 1321,
  "\u2581never": 1322,
  "ores": 1323,
  "\u2581give": 1324,
  "\u2581pat": 1325,
  "array": 1326,
  "\u2581index": 1327,
  "\u2581sw": 1328,
  "\u2581km": 1329,
  "ena": 1330,
  "rap": 1331,
  "\u2581List": 1332,
  "\u2581However": 1333,
  "\u2581below": 1334,
  "\u2581App": 1335,
  "}_": 1336,
  "\u2581record": 1337,
  "lem": 1338,
  "\u2581rece": 1339,
  "mit": 1340,
  "ieve": 1341,
  "\u2581nov": 1342,
  "\u2581loop": 1343,
  "\u2581$(": 1344,
  "\u2581super": 1345,
  "rid": 1346,
  "\u2581Per": 1347,
  "\u2581write": 1348,
  "\u2581inv": 1349,
  "\u2581Her": 1350,
  "\u2581years": 1351,
  "\u2581original": 1352,
  "\u2581seems": 1353,
  "\u2581next": 1354,
  "\u2581Ne": 1355,
  "ification": 1356,
  "atic": 1357,
  "ision": 1358,
  "\u2581day": 1359,
  "iction": 1360,
  "ours": 1361,
  "\u2581information": 1362,
  "\u2581multi": 1363,
  "\u2581\\\\": 1364,
  "ster": 1365,
  "AC": 1366,
  "\u2581display": 1367,
  "oman": 1368,
  "Time": 1369,
  "ius": 1370,
  "));": 1371,
  "\u2581lim": 1372,
  "ately": 1373,
  "uel": 1374,
  "eld": 1375,
  "pper": 1376,
  "ula": 1377,
  "\u2581general": 1378,
  "Al": 1379,
  "\u2581upon": 1380,
  "zo": 1381,
  "\u2581prom": 1382,
  "\u2581turn": 1383,
  "icle": 1384,
  "ara": 1385,
  "ware": 1386,
  "align": 1387,
  "angle": 1388,
  "\u2581Sc": 1389,
  "Un": 1390,
  "Add": 1391,
  "\u2581sum": 1392,
  "\u2581having": 1393,
  "\u2581fig": 1394,
  "\u2581Res": 1395,
  "with": 1396,
  "\u2581bro": 1397,
  "rie": 1398,
  "aps": 1399,
  "ending": 1400,
  "\u2581success": 1401,
  "\u2581deb": 1402,
  "elta": 1403,
  "inn": 1404,
  "\u2581simple": 1405,
  "\u2581care": 1406,
  "\u2581Now": 1407,
  "Ind": 1408,
  "ram": 1409,
  "equation": 1410,
  "lim": 1411,
  "\u2581tre": 1412,
  "aten": 1413,
  "\u2581results": 1414,
  "\u2581bit": 1415,
  "ony": 1416,
  "iff": 1417,
  "\u2581bar": 1418,
  "bers": 1419,
  "){": 1420,
  "\u2581Mon": 1421,
  "\u2581doing": 1422,
  "\u2581prof": 1423,
  "\u2581install": 1424,
  "\u2581position": 1425,
  "\u2581cannot": 1426,
  "\u2581May": 1427,
  "-\\": 1428,
  "\u2581appear": 1429,
  "ided": 1430,
  "atter": 1431,
  "\u2581side": 1432,
  "\u2581Jan": 1433,
  "\u2581within": 1434,
  "\u2581date": 1435,
  "\u2581entre": 1436,
  "\u2581message": 1437,
  "\u2581nach": 1438,
  "\u2581during": 1439,
  "\u2581gra": 1440,
  "\u2581By": 1441,
  "\u2581tell": 1442,
  "ete": 1443,
  "\u2581bis": 1444,
  "\u2581pu": 1445,
  "\u2581red": 1446,
  "\u2581thing": 1447,
  "xim": 1448,
  "ires": 1449,
  "\u2581Est": 1450,
  "osed": 1451,
  "\u2581sent": 1452,
  "ribute": 1453,
  "utes": 1454,
  "\u2581service": 1455,
  "';": 1456,
  "rel": 1457,
  "\u2581going": 1458,
  "\u2581later": 1459,
  "uk": 1460,
  "----------------": 1461,
  "\u2581exact": 1462,
  "II": 1463,
  "\u2581They": 1464,
  "\u2581fine": 1465,
  "eters": 1466,
  "ilder": 1467,
  "ples": 1468,
  "\u2581specific": 1469,
  "\u2581om": 1470,
  "\u2581film": 1471,
  "uck": 1472,
  "ains": 1473,
  "\u2581things": 1474,
  "Sh": 1475,
  "\u2581thought": 1476,
  "\u2581added": 1477,
  "\u2581Li": 1478,
  "ils": 1479,
  "ries": 1480,
  "\u2581cu": 1481,
  "chen": 1482,
  "\u2581Des": 1483,
  "irt": 1484,
  "\u2581based": 1485,
  "\u2581running": 1486,
  "oud": 1487,
  "ious": 1488,
  "\u2581Jul": 1489,
  "\u2581search": 1490,
  "ald": 1491,
  "\u2581wrong": 1492,
  "An": 1493,
  "\u2581until": 1494,
  "\u2581once": 1495,
  "arr": 1496,
  "\u2581against": 1497,
  "arn": 1498,
  "\u2581represent": 1499,
  "\u2581allow": 1500,
  "ended": 1501,
  "mathbf": 1502,
  "cur": 1503,
  "\u2581inside": 1504,
  "De": 1505,
  "sw": 1506,
  "\u2581sever": 1507,
  "Of": 1508,
  "\u2581instance": 1509,
  "\u2581mer": 1510,
  "\u2581effect": 1511,
  "color": 1512,
  "des": 1513,
  "itz": 1514,
  "nie": 1515,
  "\u2581World": 1516,
  "\u2581similar": 1517,
  "hing": 1518,
  "\u2581mark": 1519,
  "\u2581means": 1520,
  "count": 1521,
  "\u2581Inst": 1522,
  "ctor": 1523,
  "\u2581Let": 1524,
  "\u2581getting": 1525,
  "umber": 1526,
  "\u2581Will": 1527,
  "\u2581Em": 1528,
  "head": 1529,
  "\u2581leg": 1530,
  "\u2581Christ": 1531,
  "\u2581around": 1532,
  "\u2581clear": 1533,
  "\u2581created": 1534,
  "\u2581button": 1535,
  "ining": 1536,
  "iam": 1537,
  "For": 1538,
  "\u2581polit": 1539,
  "cle": 1540,
  "}^{": 1541,
  "\u2581either": 1542,
  "\u2581few": 1543,
  "\u2581initial": 1544,
  "length": 1545,
  "\u2581valid": 1546,
  "And": 1547,
  "include": 1548,
  "ury": 1549,
  "ired": 1550,
  "\u2581After": 1551,
  "\u2581due": 1552,
  "\u2581Cont": 1553,
  "\u2581break": 1554,
  "ested": 1555,
  "\u2581actually": 1556,
  "ones": 1557,
  "\u2581design": 1558,
  "\u2581property": 1559,
  "phi": 1560,
  "ality": 1561,
  "ists": 1562,
  "\u2581\u00b7": 1563,
  "AB": 1564,
  "ala": 1565,
  "As": 1566,
  "\u2581ann": 1567,
  "ES": 1568,
  "lambda": 1569,
  "\u2581ident": 1570,
  "\u2581organ": 1571,
  "\u2581hard": 1572,
  "\u2581separ": 1573,
  "yl": 1574,
  "\u2581dev": 1575,
  "\u2581block": 1576,
  "book": 1577,
  "\u2581map": 1578,
  "illa": 1579,
  "\u2581space": 1580,
  "result": 1581,
  ")}": 1582,
  "\u2581large": 1583,
  "\u2581width": 1584,
  "\u2581Go": 1585,
  "\u2581diff": 1586,
  "\u2581kind": 1587,
  "ances": 1588,
  "\u2581color": 1589,
  "sol": 1590,
  "\u2581response": 1591,
  "wards": 1592,
  "arrow": 1593,
  "yd": 1594,
  "\u2581item": 1595,
  "ima": 1596,
  "\u2581approach": 1597,
  "On": 1598,
  "ollow": 1599,
  "cted": 1600,
  "ured": 1601,
  "lied": 1602,
  "\u2581jo": 1603,
  "start": 1604,
  "ola": 1605,
  "IC": 1606,
  "\u2581base": 1607,
  "\u2581idea": 1608,
  "\u2581rad": 1609,
  "group": 1610,
  "\u2581With": 1611,
  "side": 1612,
  "\u2581near": 1613,
  "\u2581argument": 1614,
  "\u2581land": 1615,
  "\u2581option": 1616,
  "pped": 1617,
  "\u2581full": 1618,
  "\u2581etc": 1619,
  "\u2581Cor": 1620,
  "\u2581came": 1621,
  "\u2581known": 1622,
  "\u2581multiple": 1623,
  "\u2581total": 1624,
  "ology": 1625,
  "\u2581fre": 1626,
  "\u2581ten": 1627,
  "omm": 1628,
  "\u2581Art": 1629,
  "\u2581keep": 1630,
  "\u2581University": 1631,
  "tra": 1632,
  "ector": 1633,
  "oph": 1634,
  "\u2581conc": 1635,
  "\u2581four": 1636,
  "\u2581via": 1637,
  "?\"": 1638,
  "\u2581context": 1639,
  "\u2581sem": 1640,
  "\u2581eng": 1641,
  "AD": 1642,
  "\u2581mor": 1643,
  "\u2581Cal": 1644,
  "\u2581cell": 1645,
  "imal": 1646,
  "\u2581inf": 1647,
  "With": 1648,
  "\u2581door": 1649,
  "\u2581miss": 1650,
  "ira": 1651,
  "\u2581hat": 1652,
  "Test": 1653,
  "\u2581certain": 1654,
  "\u2581cho": 1655,
  "where": 1656,
  "\u2581looking": 1657,
  "\u2581times": 1658,
  "\u2581(*": 1659,
  "burg": 1660,
  "const": 1661,
  "ades": 1662,
  "\u2581Mus": 1663,
  "\u2581nothing": 1664,
  "\u2581incre": 1665,
  "\u2581power": 1666,
  "\u2581American": 1667,
  "\u2581York": 1668,
  "\u2581alg": 1669,
  "\u2581ap": 1670,
  "uff": 1671,
  "ability": 1672,
  "\u2581pot": 1673,
  "ailable": 1674,
  "\"]": 1675,
  "\u2581less": 1676,
  "\u2581August": 1677,
  "It": 1678,
  "\u2581please": 1679,
  "\u2581style": 1680,
  "\u2581Also": 1681,
  "\u2581One": 1682,
  "uit": 1683,
  "+\\": 1684,
  "alf": 1685,
  "\u2581client": 1686,
  "\u2581continu": 1687,
  "mathrm": 1688,
  "\u2581book": 1689,
  "\u2581gl": 1690,
  "ives": 1691,
  "\u2581US": 1692,
  "point": 1693,
  "open": 1694,
  "\u2581cur": 1695,
  "\u2581particular": 1696,
  "\u2581HT": 1697,
  "\u2581action": 1698,
  "\u2581include": 1699,
  "\u2581elements": 1700,
  "ards": 1701,
  "\u2581hum": 1702,
  "from": 1703,
  "change": 1704,
  "\u2581functions": 1705,
  "hen": 1706,
  "\u2581height": 1707,
  "hand": 1708,
  "\u2581amb": 1709,
  "\u2581Lu": 1710,
  "\u2581throw": 1711,
  "\u2581mot": 1712,
  "\u2581world": 1713,
  "_\\": 1714,
  "base": 1715,
  "ged": 1716,
  "\u2581several": 1717,
  "check": 1718,
  "]{": 1719,
  "\u2581Tra": 1720,
  "\u2581least": 1721,
  "down": 1722,
  "\u2581cas": 1723,
  "\u2581bound": 1724,
  "CO": 1725,
  "\u2581Ang": 1726,
  "ouch": 1727,
  "ribution": 1728,
  "Le": 1729,
  "}_{": 1730,
  "\u2581statement": 1731,
  "\u2581Brit": 1732,
  "\u2581level": 1733,
  "\u2581product": 1734,
  "\u2581course": 1735,
  "\u2581Mr": 1736,
  "\u2581ret": 1737,
  "ering": 1738,
  "most": 1739,
  "Pl": 1740,
  "\u2581dos": 1741,
  "day": 1742,
  "\u2581tw": 1743,
  "Ad": 1744,
  "\u2581($": 1745,
  "\u2581fur": 1746,
  "pping": 1747,
  "\u2581rather": 1748,
  "\u2581site": 1749,
  "ani": 1750,
  "\u2581home": 1751,
  "\u2581short": 1752,
  "\u2581lead": 1753,
  "cing": 1754,
  "ording": 1755,
  "\u2581didn": 1756,
  "\u2581lot": 1757,
  "AS": 1758,
  "\u2581sat": 1759,
  "\u2581points": 1760,
  "\u2581Dis": 1761,
  "ponent": 1762,
  "omet": 1763,
  "zer": 1764,
  "\u2581pa": 1765,
  "AP": 1766,
  "\u2581United": 1767,
  "ety": 1768,
  "\u2581enough": 1769,
  "\u2581length": 1770,
  "^{\\": 1771,
  "itive": 1772,
  "unch": 1773,
  "\u2581Sub": 1774,
  "}{\\": 1775,
  "top": 1776,
  "Gr": 1777,
  "\u2581defined": 1778,
  "\u2581serv": 1779,
  "\u2581remove": 1780,
  "ED": 1781,
  "\u2581whole": 1782,
  "pm": 1783,
  "olds": 1784,
  "\u2581War": 1785,
  "\u2581tri": 1786,
  "oper": 1787,
  "\u2581Mich": 1788,
  "board": 1789,
  "Inst": 1790,
  "\u2581begin": 1791,
  "ination": 1792,
  "\u2581Den": 1793,
  "option": 1794,
  "\u2581construct": 1795,
  "\u2581respect": 1796,
  "\u2581apply": 1797,
  "\u2581format": 1798,
  "Log": 1799,
  "utor": 1800,
  "\u2581calcul": 1801,
  "Lo": 1802,
  "infty": 1803,
  "\u2581along": 1804,
  "\u2581task": 1805,
  "theta": 1806,
  "ras": 1807,
  "My": 1808,
  "omb": 1809,
  "quad": 1810,
  "^{-": 1811,
  "\u2581looks": 1812,
  "nu": 1813,
  "\u2581Med": 1814,
  "\u2581cost": 1815,
  "\u2581Sim": 1816,
  "\u2581(\\": 1817,
  "\u2581parameter": 1818,
  "\u2581France": 1819,
  "\u2581TH": 1820,
  "\u2581yet": 1821,
  "\u2581away": 1822,
  "\u2581circ": 1823,
  "emp": 1824,
  "\u2581lines": 1825,
  "ging": 1826,
  "\u2581Add": 1827,
  "\u2581range": 1828,
  "lip": 1829,
  "\u2581Kar": 1830,
  "aff": 1831,
  "sec": 1832,
  "lig": 1833,
  "\u2581window": 1834,
  "\u2581neg": 1835,
  "page": 1836,
  "\u2581library": 1837,
  "You": 1838,
  "\u2581host": 1839,
  "aven": 1840,
  "alle": 1841,
  "erman": 1842,
  "\u2581copy": 1843,
  "\u2581went": 1844,
  "\u2581frame": 1845,
  "\u2581previous": 1846,
  "\u2581methods": 1847,
  "\u2581necess": 1848,
  "cket": 1849,
  "\u2581opt": 1850,
  "ship": 1851,
  "\u2581itself": 1852,
  "\u2581Please": 1853,
  "\u2581<<": 1854,
  "\u2581trad": 1855,
  "\u2581Har": 1856,
  "wise": 1857,
  "\u2581accept": 1858,
  "height": 1859,
  "ella": 1860,
  "((": 1861,
  "ops": 1862,
  "Over": 1863,
  "\u2581network": 1864,
  "\u2581assign": 1865,
  "beta": 1866,
  "\u2581Your": 1867,
  "\u2581package": 1868,
  "\u2581light": 1869,
  "\u2581**": 1870,
  "\u2581cou": 1871,
  "yes": 1872,
  ":\\": 1873,
  "\u2581mention": 1874,
  "\u2581deg": 1875,
  "\u2581convert": 1876,
  "\u2581Dav": 1877,
  "Result": 1878,
  "\u2581bus": 1879,
  "xy": 1880,
  "\u2581seen": 1881,
  "All": 1882,
  "ively": 1883,
  "\u2581His": 1884,
  "\u2581took": 1885,
  "\u2581objects": 1886,
  "\u2581common": 1887,
  "\u2581changes": 1888,
  "\u2581Lond": 1889,
  "\u2581extern": 1890,
  "\u2581ju": 1891,
  "Is": 1892,
  "\u2581available": 1893,
  "tri": 1894,
  "ural": 1895,
  "\u2581account": 1896,
  "oo": 1897,
  "\u2581perm": 1898,
  "\u2581send": 1899,
  "\u2581returns": 1900,
  "ivid": 1901,
  "\u2581nor": 1902,
  "If": 1903,
  "\u2581From": 1904,
  "\u2581target": 1905,
  "\u2581Jo": 1906,
  "\u2581variables": 1907,
  "\u2581series": 1908,
  "\u2581func": 1909,
  "\u2581himself": 1910,
  "ae": 1911,
  "\u2581foot": 1912,
  "Not": 1913,
  "rad": 1914,
  "\u2581util": 1915,
  "itar": 1916,
  "sqrt": 1917,
  "\u2581ant": 1918,
  "\u2581Paris": 1919,
  "\u2581exception": 1920,
  "\u2581determ": 1921,
  "\u2581Vol": 1922,
  "\u2581Sam": 1923,
  "lies": 1924,
  "\u2581whether": 1925,
  "\u2581numbers": 1926,
  "\u2581~": 1927,
  "\u2581shows": 1928,
  "atures": 1929,
  "\u2581house": 1930,
  "\u2581face": 1931,
  "van": 1932,
  "\u2581including": 1933,
  "times": 1934,
  "now": 1935,
  "\u2581pur": 1936,
  "\u2581emp": 1937,
  "mon": 1938,
  "ady": 1939,
  "\u2581band": 1940,
  "\u2581exactly": 1941,
  "\u2581SE": 1942,
  "cell": 1943,
  "\u2581makes": 1944,
  "\u2581required": 1945,
  "\u2581Paul": 1946,
  "inc": 1947,
  "\u2581contains": 1948,
  "Out": 1949,
  "asure": 1950,
  "pu": 1951,
  "\u2581game": 1952,
  "big": 1953,
  "sigma": 1954,
  "\u2581quite": 1955,
  "rec": 1956,
  "\u2581Mart": 1957,
  "ya": 1958,
  "\u2581school": 1959,
  "\u2581simply": 1960,
  "\u2581double": 1961,
  "\u2581album": 1962,
  "umb": 1963,
  "\u2581*/": 1964,
  "No": 1965,
  "\u2581period": 1966,
  "\u2581April": 1967,
  "\u2581store": 1968,
  "\u2581Pal": 1969,
  "\u2581worked": 1970,
  "leq": 1971,
  "\u2581happen": 1972,
  "\u2581box": 1973,
  "ney": 1974,
  "\u2581close": 1975,
  "\u2581gran": 1976,
  "\u2581lie": 1977,
  "\u2581ir": 1978,
  "\u2581expected": 1979,
  "\u2581plan": 1980,
  "\u2581team": 1981,
  "][": 1982,
  "ency": 1983,
  "gl": 1984,
  "inary": 1985,
  "cdot": 1986,
  "^\\": 1987,
  "\u2581First": 1988,
  "ander": 1989,
  "\u2581Dec": 1990,
  "\u2581||": 1991,
  "\u2581Mil": 1992,
  "\u2581Some": 1993,
  "\u2581words": 1994,
  "\u2581September": 1995,
  "\u2581days": 1996,
  "ories": 1997,
  "vin": 1998,
  "\u2581parent": 1999,
  "Ed": 2000,
  "\u2581q": 2001,
  "\u2581ben": 2002,
  "\u2581label": 2003,
  "uring": 2004,
  "\u2581provide": 2005,
  "He": 2006,
  "\u2581Yes": 2007,
  "\u2581Don": 2008,
  "\u2581root": 2009,
  "*/": 2010,
  "range": 2011,
  "ounds": 2012,
  "\u2581free": 2013,
  "orge": 2014,
  ")=": 2015,
  "\u2581enter": 2016,
  "\u2581became": 2017,
  "verse": 2018,
  "UN": 2019,
  "ee": 2020,
  "\u2581making": 2021,
  "\u2581\"$": 2022,
  "\u2581uses": 2023,
  "zie": 2024,
  "\u2581Count": 2025,
  "\u2581standard": 2026,
  "\u2581ever": 2027,
  "LO": 2028,
  "\u2581correspond": 2029,
  "\u2581remain": 2030,
  "\u2581actual": 2031,
  "\u2581changed": 2032,
  "\u2581Note": 2033,
  "\u2581family": 2034,
  "cos": 2035,
  "\u2581arr": 2036,
  "\u2581cam": 2037,
  "izer": 2038,
  "\u2581Sal": 2039,
  "\u2581connection": 2040,
  "RI": 2041,
  "\u2581press": 2042,
  "\u2581written": 2043,
  "dir": 2044,
  "rew": 2045,
  "\u2581fire": 2046,
  "enc": 2047,
  "\u2581origin": 2048,
  "\u2581November": 2049,
  "Count": 2050,
  "\u2581graph": 2051,
  "\u2581mis": 2052,
  "\u2581\u2581\u2581\u2581\u2581\u2581\u2581\u2581\u2581": 2053,
  "\u2581options": 2054,
  "inner": 2055,
  "$$": 2056,
  "\u2581Since": 2057,
  "\u2581section": 2058,
  "\u2581behav": 2059,
  "draw": 2060,
  "This": 2061,
  "inding": 2062,
  "\u2581obtain": 2063,
  "\u2581qual": 2064,
  "\u2581har": 2065,
  "\u2581fac": 2066,
  "icles": 2067,
  "\u2581hor": 2068,
  "Sub": 2069,
  "\u2581random": 2070,
  "\u2581area": 2071,
  "Pr": 2072,
  "*}": 2073,
  "\u2581others": 2074,
  "\u2581limit": 2075,
  "\u2581sil": 2076,
  "\u2581sav": 2077,
  "\u2581often": 2078,
  "DB": 2079,
  "\u2581Mc": 2080,
  "\u2581tag": 2081,
  "ming": 2082,
  "pack": 2083,
  "\u2581Ag": 2084,
  "aged": 2085,
  "\u2581interest": 2086,
  "\u2581associ": 2087,
  "\u2581empty": 2088,
  "iche": 2089,
  "\u2581gro": 2090,
  "\u2581types": 2091,
  "Inter": 2092,
  "\u2581gives": 2093,
  "hal": 2094,
  "\u2581save": 2095,
  "ruction": 2096,
  "\u2581says": 2097,
  "ape": 2098,
  "\u2581language": 2099,
  "iger": 2100,
  "\u2581King": 2101,
  "bor": 2102,
  "\u2581Europe": 2103,
  "\u2581water": 2104,
  "ators": 2105,
  "\u2581month": 2106,
  "ye": 2107,
  "\u2581important": 2108,
  "first": 2109,
  "\u2581Mad": 2110,
  "\u2581bra": 2111,
  "ements": 2112,
  "\u2581Ben": 2113,
  "\u2581admin": 2114,
  "ril": 2115,
  "\u2581Gre": 2116,
  "\u2581young": 2117,
  "\u2581Inter": 2118,
  "oma": 2119,
  "ibility": 2120,
  "\u2581everything": 2121,
  "\u2581returned": 2122,
  "acy": 2123,
  "####": 2124,
  "\u2581folder": 2125,
  "\u2581guess": 2126,
  "icon": 2127,
  "\u2581author": 2128,
  "\u2581entire": 2129,
  "\u2581directly": 2130,
  "ester": 2131,
  "PE": 2132,
  "\u2581component": 2133,
  "ands": 2134,
  "\u2581Hol": 2135,
  "ori": 2136,
  "CC": 2137,
  "At": 2138,
  "\u2581performance": 2139,
  "but": 2140,
  "\u2581lik": 2141,
  "\u2581condition": 2142,
  "rab": 2143,
  "\u2581half": 2144,
  "each": 2145,
  "Dis": 2146,
  "\u2581rows": 2147,
  "\u2581together": 2148,
  "\u2581draw": 2149,
  "\u2581attempt": 2150,
  "\u2581English": 2151,
  "\u2581needs": 2152,
  "\u2581normal": 2153,
  "urt": 2154,
  "}}\\": 2155,
  "last": 2156,
  "ila": 2157,
  "\u2581country": 2158,
  "\u2581built": 2159,
  "\u2581camp": 2160,
  "icy": 2161,
  "\u2581among": 2162,
  "\u2581cases": 2163,
  "arter": 2164,
  "\u2581named": 2165,
  "\u2581season": 2166,
  "graph": 2167,
  "\u2581nil": 2168,
  "\u2581special": 2169,
  "\u2581\\(": 2170,
  "\u2581city": 2171,
  "\u2581article": 2172,
  "itude": 2173,
  "\u2581complex": 2174,
  "'.": 2175,
  "car": 2176,
  "|\\": 2177,
  "Bar": 2178,
  "Trans": 2179,
  "\u2581law": 2180,
  "geb": 2181,
  "}$.": 2182,
  "\u2581needed": 2183,
  "aries": 2184,
  "mm": 2185,
  "\u2581shown": 2186,
  "\u2581bad": 2187,
  "\u2581cast": 2188,
  "\u2581Mac": 2189,
  "\u2581transform": 2190,
  "\u2581difference": 2191,
  "TE": 2192,
  "\u2581step": 2193,
  "\u2581capt": 2194,
  "\u2581collection": 2195,
  "\u2581Tom": 2196,
  "\u2581move": 2197,
  "ords": 2198,
  "\u2581further": 2199,
  "\u2581columns": 2200,
  "\u2581fixed": 2201,
  "\u2581children": 2202,
  "wi": 2203,
  "iving": 2204,
  "\u2581Bro": 2205,
  "\u2581Pres": 2206,
  "reci": 2207,
  "aring": 2208,
  "light": 2209,
  "\u2581Red": 2210,
  "olf": 2211,
  "New": 2212,
  "\u2581figure": 2213,
  "\u2581catch": 2214,
  "default": 2215,
  "\u2581matter": 2216,
  "\u2581Rich": 2217,
  "\u2581handle": 2218,
  "valu": 2219,
  "$-": 2220,
  "\u2581exam": 2221,
  "ored": 2222,
  "}[": 2223,
  "\u2581club": 2224,
  "\u2581City": 2225,
  "\u2581classes": 2226,
  "\u2581infl": 2227,
  "\u2581adding": 2228,
  "util": 2229,
  "\u2581location": 2230,
  "\u2581properties": 2231,
  "}$,": 2232,
  "\u2581asked": 2233,
  "\u2581dro": 2234,
  "\u2581note": 2235,
  "\u2581setting": 2236,
  "\u2581saw": 2237,
  "\u2581Out": 2238,
  "\u2581items": 2239,
  "lia": 2240,
  "\u2581sin": 2241,
  "\u2581feel": 2242,
  "\u2581mode": 2243,
  "\u2581auto": 2244,
  "\u2581follows": 2245,
  "\u2581wait": 2246,
  "igr": 2247,
  "\u2581Mark": 2248,
  "\u2581ill": 2249,
  "\u2581sal": 2250,
  "sv": 2251,
  "\u2581passed": 2252,
  "\u2581solve": 2253,
  "\u2581meg": 2254,
  "\u2581member": 2255,
  "\u2581connect": 2256,
  "ips": 2257,
  "\u2581round": 2258,
  "\u2581]": 2259,
  "nes": 2260,
  "dy": 2261,
  "\u2581received": 2262,
  "\u2581Log": 2263,
  "\u2581School": 2264,
  "ango": 2265,
  "\u2581These": 2266,
  "\u2581define": 2267,
  "\u2581cle": 2268,
  "\u2581View": 2269,
  "textbf": 2270,
  "$\\": 2271,
  "number": 2272,
  "eller": 2273,
  "\u2581Mo": 2274,
  "exp": 2275,
  "\u2581strong": 2276,
  "\u2581thus": 2277,
  "\u2581ele": 2278,
  "\u2581cause": 2279,
  "Number": 2280,
  "\u2581sample": 2281,
  "\u2581sci": 2282,
  "like": 2283,
  "div": 2284,
  "anc": 2285,
  "\u2581front": 2286,
  "\u2581missing": 2287,
  "aria": 2288,
  "pres": 2289,
  "emat": 2290,
  "\u2581Jean": 2291,
  "enne": 2292,
  "\u2581taken": 2293,
  "\u2581Of": 2294,
  "OP": 2295,
  "From": 2296,
  "\u2581grand": 2297,
  "\u2581expression": 2298,
  "\u2581switch": 2299,
  "\u2581vector": 2300,
  "\u2581cover": 2301,
  "rench": 2302,
  "ota": 2303,
  "anged": 2304,
  "\u2581black": 2305,
  "\u2581selected": 2306,
  "cher": 2307,
  "\u2581liter": 2308,
  "root": 2309,
  "\u2581Life": 2310,
  "\u2581matrix": 2311,
  "ises": 2312,
  ")]": 2313,
  "\u2581former": 2314,
  "\u2581night": 2315,
  "\u2581express": 2316,
  "\u2581third": 2317,
  "\u2581major": 2318,
  "\u2581grad": 2319,
  "owe": 2320,
  "\u2581believe": 2321,
  "\u2581dou": 2322,
  "uis": 2323,
  "\u2581population": 2324,
  "\u2581Di": 2325,
  "}(\\": 2326,
  "\u2581kil": 2327,
  "umer": 2328,
  "\u2581Are": 2329,
  "cks": 2330,
  "\u2581Internet": 2331,
  "\u2581started": 2332,
  "\u2581early": 2333,
  "\u2581began": 2334,
  "TH": 2335,
  "istic": 2336,
  "\u2581music": 2337,
  "\u2581dig": 2338,
  "\u2581David": 2339,
  "product": 2340,
  "\u2581\u2581\u2581\u2581\u2581\u2581\u2581": 2341,
  "\u2581Az": 2342,
  "which": 2343,
  "\u2581soon": 2344,
  "\u2581Pre": 2345,
  "\u2581week": 2346,
  "\u2581oct": 2347,
  "\u2581town": 2348,
  "roy": 2349,
  "\u2581models": 2350,
  "CE": 2351,
  "using": 2352,
  "udi": 2353,
  "\u2581Miss": 2354,
  "posed": 2355,
  "\u2581Robert": 2356,
  "lop": 2357,
  "\u2581aver": 2358,
  "\u2581habit": 2359,
  "Start": 2360,
  "\u2581pattern": 2361,
  "\u2581bi": 2362,
  "otes": 2363,
  "\u2581avoid": 2364,
  "Label": 2365,
  "tex": 2366,
  "\u2581March": 2367,
  "\u2581easy": 2368,
  "Group": 2369,
  "\u2581father": 2370,
  "\u2581III": 2371,
  "omega": 2372,
  "Rec": 2373,
  "yg": 2374,
  "\u2581white": 2375,
  "\u2581air": 2376,
  "det": 2377,
  "\u2581big": 2378,
  "\u2581Use": 2379,
  "\u2581extra": 2380,
  "We": 2381,
  "\u2581hold": 2382,
  "\u2581Ke": 2383,
  "\u2581center": 2384,
  "iding": 2385,
  "\u2581across": 2386,
  "\u2581numer": 2387,
  "\u2581Alex": 2388,
  "\u2581problems": 2389,
  "\u2581six": 2390,
  "\u2581Cast": 2391,
  "oms": 2392,
  "\u2581vert": 2393,
  "ids": 2394,
  "\u2581gave": 2395,
  "\u2581player": 2396,
  "\u2581ax": 2397,
  "\u2581someone": 2398,
  "\u2581impro": 2399,
  "aden": 2400,
  "\u2581video": 2401,
  "\u2581exists": 2402,
  "\u2581complete": 2403,
  "\u2581session": 2404,
  "\u2581constant": 2405,
  "\u2581pack": 2406,
  "rome": 2407,
  "case": 2408,
  ")^": 2409,
  "\u2581force": 2410,
  "\u2581cross": 2411,
  "\u2581takes": 2412,
  "iny": 2413,
  "''": 2414,
  "\u2581British": 2415,
  "ville": 2416,
  "cm": 2417,
  "Ab": 2418,
  "\u2581perfect": 2419,
  "lier": 2420,
  "\u2581machine": 2421,
  "\u2581held": 2422,
  ")$.": 2423,
  "cker": 2424,
  "\u2581past": 2425,
  "\u2581Dr": 2426,
  "\u2581regular": 2427,
  "\u2581provided": 2428,
  "\u2581gets": 2429,
  "ober": 2430,
  "\u2581become": 2431,
  "\u2581``": 2432,
  "\u2581history": 2433,
  "\u2581Sol": 2434,
  "\u2581terms": 2435,
  "\u2581events": 2436,
  ")))": 2437,
  "\u2581soft": 2438,
  "\u2581subject": 2439,
  "\u2581creating": 2440,
  "\u2581Frank": 2441,
  "sa": 2442,
  "\u2581distribution": 2443,
  "izz": 2444,
  "\u2581job": 2445,
  "iner": 2446,
  "struct": 2447,
  "oney": 2448,
  "inder": 2449,
  "\u2581quick": 2450,
  "\u2581company": 2451,
  "\u2581separate": 2452,
  "\u2581writing": 2453,
  "\u2581James": 2454,
  "\u2581DE": 2455,
  "\u2581anyone": 2456,
  "aron": 2457,
  "\u2581definition": 2458,
  "ributes": 2459,
  "element": 2460,
  "cap": 2461,
  ")(": 2462,
  "\u2581according": 2463,
  "\u2581pie": 2464,
  "\u2581stop": 2465,
  "\u2581age": 2466,
  "agement": 2467,
  "atives": 2468,
  "\u2581High": 2469,
  "rest": 2470,
  "under": 2471,
  "center": 2472,
  "\u2581whose": 2473,
  "\u2581station": 2474,
  "\u2581arm": 2475,
  "\u2581eyes": 2476,
  "win": 2477,
  "aking": 2478,
  "lor": 2479,
  "\u2581stack": 2480,
  "AF": 2481,
  "\u2581compet": 2482,
  "\u2581pair": 2483,
  "\u2581learn": 2484,
  "\u2581pal": 2485,
  "ares": 2486,
  "\u2581region": 2487,
  "\u2581friend": 2488,
  "\u2581George": 2489,
  "\u2581wanted": 2490,
  "\u2581included": 2491,
  "\u2581((": 2492,
  "\u2581altern": 2493,
  "gn": 2494,
  "\u2581border": 2495,
  "\u2581download": 2496,
  "\u2581members": 2497,
  "child": 2498,
  "\u2581pay": 2499,
  "\u2581correctly": 2500,
  "\u2581desc": 2501,
  "\u2581questions": 2502,
  "mal": 2503,
  "Base": 2504,
  "\u2581ris": 2505,
  "\u2581various": 2506,
  "\u2581Type": 2507,
  "itter": 2508,
  "\u2581fast": 2509,
  "\u2581except": 2510,
  "\u2581French": 2511,
  "\u2581necessary": 2512,
  "\u2581reading": 2513,
  "home": 2514,
  "\u2581equal": 2515,
  "\u2581prem": 2516,
  "\u2581difficult": 2517,
  "\u2581unit": 2518,
  "\u2581replace": 2519,
  "\u2581heart": 2520,
  "\u2581talk": 2521,
  "\u2581imm": 2522,
  "\u2581Gal": 2523,
  "rightarrow": 2524,
  "\u2581building": 2525,
  "import": 2526,
  "aire": 2527,
  "\u2581fund": 2528,
  "\u2581particip": 2529,
  "sin": 2530,
  "\u2581lower": 2531,
  "\u2581zero": 2532,
  "\u2581sec": 2533,
  "\u2581fra": 2534,
  "Point": 2535,
  "cup": 2536,
  "\u2581slow": 2537,
  "\u2581sold": 2538,
  "\u2581Rem": 2539,
  "\u2581assume": 2540,
  "\u2581amount": 2541,
  "\u2581maxim": 2542,
  "Comm": 2543,
  "\u2581social": 2544,
  "vor": 2545,
  "\u2581alt": 2546,
  "\u2581mentioned": 2547,
  "\u2581<=": 2548,
  "\u2581currently": 2549,
  "izing": 2550,
  "\u2581configuration": 2551,
  "\u2581tu": 2552,
  "\u2581Using": 2553,
  "\u2581comes": 2554,
  "\u2581direction": 2555,
  "\u2581June": 2556,
  "\u2581Peter": 2557,
  "uct": 2558,
  "\u2581played": 2559,
  "\u2581five": 2560,
  "\u2581Charles": 2561,
  "Tra": 2562,
  "How": 2563,
  "uri": 2564,
  "esse": 2565,
  "matrix": 2566,
  "\u2581Mat": 2567,
  "has": 2568,
  "\u2581discuss": 2569,
  "\u2581domain": 2570,
  "\u2581love": 2571,
  "aba": 2572,
  "bi": 2573,
  "\u2581obser": 2574,
  "itting": 2575,
  "}=": 2576,
  "BC": 2577,
  "\u2581individual": 2578,
  "\u2581deal": 2579,
  "\u2581outside": 2580,
  "\u2581business": 2581,
  "itte": 2582,
  "xi": 2583,
  "hol": 2584,
  "ring": 2585,
  "\u2581Check": 2586,
  "\u2581win": 2587,
  "\u2581useful": 2588,
  "\u2581unique": 2589,
  "ying": 2590,
  "\u2581distance": 2591,
  "iven": 2592,
  "\u2581told": 2593,
  "\u2581future": 2594,
  "leep": 2595,
  "\u2581described": 2596,
  "fa": 2597,
  "\u2581fill": 2598,
  "\u2581tree": 2599,
  "\u2581Liter": 2600,
  "rot": 2601,
  "split": 2602,
  "\u2581operator": 2603,
  "\u2581Jack": 2604,
  "\u2581simpl": 2605,
  "\u2581July": 2606,
  "iles": 2607,
  "\u2581wel": 2608,
  "\u2581therefore": 2609,
  "\u2581January": 2610,
  "\u2581usually": 2611,
  "\u2581released": 2612,
  "\u2581Mi": 2613,
  "iller": 2614,
  "\u2581jan": 2615,
  "\u2581letter": 2616,
  "rd": 2617,
  ",'": 2618,
  "more": 2619,
  "/*": 2620,
  "\u2581likely": 2621,
  "\u2581material": 2622,
  "\u2581longer": 2623,
  "idge": 2624,
  "\u2581inc": 2625,
  "\u2581October": 2626,
  "\u2581viol": 2627,
  "\u2581Does": 2628,
  "\u2581\\[": 2629,
  "\u2581considered": 2630,
  "pes": 2631,
  "cil": 2632,
  "\u2581Del": 2633,
  "\u2581repe": 2634,
  "\u2581Thomas": 2635,
  "eline": 2636,
  "\u2581transl": 2637,
  "fill": 2638,
  "\u2581Air": 2639,
  "Check": 2640,
  "iker": 2641,
  "\u2581linear": 2642,
  "\u2581natural": 2643,
  "\u2581cop": 2644,
  "What": 2645,
  "Ref": 2646,
  "\u2581taking": 2647,
  "\u2581dam": 2648,
  "\u2581parts": 2649,
  "---": 2650,
  "\u2581mother": 2651,
  "rea": 2652,
  "\u2581container": 2653,
  "\u2581none": 2654,
  "\u2581followed": 2655,
  "\u2581measure": 2656,
  "\u2581TV": 2657,
  "\u2581paper": 2658,
  "font": 2659,
  "ecause": 2660,
  "\u2581ens": 2661,
  "\u2581Sil": 2662,
  "\u2581sequence": 2663,
  "arc": 2664,
  "make": 2665,
  "\u2581Jer": 2666,
  "\u2581Ros": 2667,
  "\u2581Ger": 2668,
  "\u2581Leg": 2669,
  "\u2581late": 2670,
  "\u2581additional": 2671,
  "\u2581flo": 2672,
  "\u2581algorithm": 2673,
  "BA": 2674,
  "\u2581appears": 2675,
  "\u2581temp": 2676,
  "\u2581pet": 2677,
  "\u2581cut": 2678,
  "\u2581track": 2679,
  "\u2581generate": 2680,
  "bes": 2681,
  "arts": 2682,
  "\u2581fi": 2683,
  "\u2581lost": 2684,
  "\u2581room": 2685,
  "\u2581calls": 2686,
  "\u2581consist": 2687,
  "\u2581village": 2688,
  "rows": 2689,
  "\u2581rot": 2690,
  "\u2581football": 2691,
  "\u2581live": 2692,
  "\u2581equival": 2693,
  "\u2581Gen": 2694,
  "\u2581behind": 2695,
  "gers": 2696,
  "that": 2697,
  "\u2581rule": 2698,
  "acc": 2699,
  "\u2581mort": 2700,
  "\u2581generated": 2701,
  "acter": 2702,
  "\u2581closed": 2703,
  "\u2581Michael": 2704,
  ")$,": 2705,
  "\u2581goes": 2706,
  "MD": 2707,
  "\u2581Anton": 2708,
  "\u2581ca": 2709,
  "eds": 2710,
  "\u2581route": 2711,
  "\u2581services": 2712,
  "aker": 2713,
  "\u2581Math": 2714,
  "lications": 2715,
  "\u2581production": 2716,
  "\u2581While": 2717,
  "\u2581sn": 2718,
  "\u2581star": 2719,
  "\u2581ko": 2720,
  "omin": 2721,
  "endant": 2722,
  "\u2581prefer": 2723,
  "bs": 2724,
  "asing": 2725,
  "\u2581west": 2726,
  "ians": 2727,
  "\u2581master": 2728,
  "\u2581ways": 2729,
  "\u2581pick": 2730,
  "\u2581depart": 2731,
  "lipse": 2732,
  "\u2581math": 2733,
  "\u2581December": 2734,
  "rum": 2735,
  "\u2581conditions": 2736,
  "\u2581operation": 2737,
  "ights": 2738,
  "anda": 2739,
  "\u2581women": 2740,
  "\u2581meet": 2741,
  "\u2581government": 2742,
  "\u2581card": 2743,
  "\u2581principal": 2744,
  "lying": 2745,
  "enter": 2746,
  "Per": 2747,
  "lice": 2748,
  "\u2581Other": 2749,
  "\u2581margin": 2750,
  "Char": 2751,
  "\u2581Max": 2752,
  "ising": 2753,
  "\u2581states": 2754,
  "\u2581happens": 2755,
  "\u2581saying": 2756,
  "\u2581recogn": 2757,
  "\\,": 2758,
  "\u2581clean": 2759,
  "lections": 2760,
  "\u2581easily": 2761,
  "\u2581iz": 2762,
  "\u2581Det": 2763,
  "\u2581offer": 2764,
  "\u2581subst": 2765,
  "\u2581ground": 2766,
  "unn": 2767,
  "spe": 2768,
  "\u2581leave": 2769,
  "erk": 2770,
  "\u2581bottom": 2771,
  "\u2581popular": 2772,
  "\u2581Time": 2773,
  "values": 2774,
  "\u2581Club": 2775,
  "\u2581located": 2776,
  "\u2581join": 2777,
  "aves": 2778,
  "\u2581claim": 2779,
  "\u2581Ba": 2780,
  "\u2581ven": 2781,
  "dt": 2782,
  "\u2581engine": 2783,
  "\u2581Cla": 2784,
  "\u2581prime": 2785,
  "istry": 2786,
  "pected": 2787,
  "Em": 2788,
  "Can": 2789,
  "\u2581whom": 2790,
  "\u2581behavior": 2791,
  "\u2581strings": 2792,
  "circ": 2793,
  "\u2581register": 2794,
  "rain": 2795,
  "TA": 2796,
  "\u2581ment": 2797,
  "\u2581integer": 2798,
  "\u2581Jac": 2799,
  "othing": 2800,
  "laces": 2801,
  "di": 2802,
  "\u2581themselves": 2803,
  "\u2581settings": 2804,
  "\u2581runs": 2805,
  "\u2581NOT": 2806,
  "anie": 2807,
  "\u2581allowed": 2808,
  "Range": 2809,
  "via": 2810,
  "\u2581turned": 2811,
  "=$": 2812,
  "\u2581answers": 2813,
  "ills": 2814,
  "\u2581heard": 2815,
  "then": 2816,
  "\u2581Si": 2817,
  "\u00e7o": 2818,
  "Equ": 2819,
  "Write": 2820,
  "\u2581woman": 2821,
  "\u2581$$\\": 2822,
  "\u2581international": 2823,
  "\u2581Richard": 2824,
  "\u2581addition": 2825,
  "\u2581tables": 2826,
  "Do": 2827,
  "\u2581higher": 2828,
  "\u2581myself": 2829,
  "\u2581menu": 2830,
  "\u2581moved": 2831,
  "\u2581reach": 2832,
  "\u2581evalu": 2833,
  "\u2581Hel": 2834,
  "\u2581sets": 2835,
  ".'": 2836,
  "\u2581Prof": 2837,
  "\u2581achieve": 2838,
  "}:": 2839,
  "\u2581Mary": 2840,
  "\u2581hours": 2841,
  "\u2581indeed": 2842,
  "ingu": 2843,
  "area": 2844,
  "\u2581removed": 2845,
  "\u2581speed": 2846,
  "\u2581Bay": 2847,
  "\u2581None": 2848,
  "\u2581fit": 2849,
  "\u2581Maria": 2850,
  "\u2581split": 2851,
  "{{": 2852,
  "IL": 2853,
  "\u2581share": 2854,
  "\u2581minutes": 2855,
  "gle": 2856,
  "\u2581temper": 2857,
  "But": 2858,
  "XX": 2859,
  ".).": 2860,
  "\u2581entry": 2861,
  "\u2581starting": 2862,
  "IG": 2863,
  "\u2581minim": 2864,
  "\u2581party": 2865,
  "\u2581Grand": 2866,
  "ensive": 2867,
  "CP": 2868,
  "\u2581lin": 2869,
  "(-": 2870,
  "geq": 2871,
  "\u2581tour": 2872,
  "\u2581Mrs": 2873,
  "\u2581Mel": 2874,
  "\u2581scale": 2875,
  "astic": 2876,
  "}^{\\": 2877,
  "So": 2878,
  "\u2581brought": 2879,
  "\u2581role": 2880,
  "\u2581Sur": 2881,
  "\u2581equation": 2882,
  "\u2581collect": 2883,
  "dot": 2884,
  "\u2581automatically": 2885,
  "\u2581spir": 2886,
  "present": 2887,
  "\u2581February": 2888,
  "\u2581Elle": 2889,
  "AA": 2890,
  "\u2581born": 2891,
  "\u2581ran": 2892,
  "\u2581profession": 2893,
  "\u2581activity": 2894,
  "Read": 2895,
  "year": 2896,
  "Det": 2897,
  "\u2581theory": 2898,
  "real": 2899,
  "\u2581positive": 2900,
  "\u2581forward": 2901,
  "\u2581imag": 2902,
  "organ": 2903,
  "rian": 2904,
  "uses": 2905,
  "\u2581wish": 2906,
  "\u2581occur": 2907,
  "\u2581loss": 2908,
  "\u2581bal": 2909,
  "\u2581career": 2910,
  "\u2581fall": 2911,
  "\u2581Rob": 2912,
  "\u2581coming": 2913,
  "\u2581died": 2914,
  "\u2581inner": 2915,
  "\u2581stuff": 2916,
  "\u2581situation": 2917,
  "\u2581${": 2918,
  "\u2581purpose": 2919,
  "\u2581Second": 2920,
  "\u2581showing": 2921,
  "\u2581completely": 2922,
  "bd": 2923,
  "\u2581tom": 2924,
  "\u2581examples": 2925,
  "\u2581remember": 2926,
  "\u2581Op": 2927,
  "\u2581otherwise": 2928,
  "lan": 2929,
  "\u2581groups": 2930,
  "rip": 2931,
  "\u2581records": 2932,
  "enty": 2933,
  "\u2581Tre": 2934,
  "\u2581changing": 2935,
  "\u2581deep": 2936,
  "El": 2937,
  "\u2581plot": 2938,
  "\u2581visit": 2939,
  "\u2581opened": 2940,
  "\u2581Henry": 2941,
  "\u2581dark": 2942,
  "\u2581Martin": 2943,
  "iling": 2944,
  "\u2581watch": 2945,
  "\u2581release": 2946,
  "\u2581allows": 2947,
  "Length": 2948,
  "\u2581whatever": 2949,
  "\u2581pages": 2950,
  "command": 2951,
  "\u2581road": 2952,
  "\u2581unless": 2953,
  "\u2581discover": 2954,
  "CD": 2955,
  "\u2581wife": 2956,
  "\u2581fair": 2957,
  "icker": 2958,
  "\u2581grow": 2959,
  "\u2581Thus": 2960,
  "\u2581rate": 2961,
  "\u2581central": 2962,
  "\u2581Van": 2963,
  "\u2581study": 2964,
  "\u2581Che": 2965,
  "\u2581beaut": 2966,
  "mid": 2967,
  "\u2581hands": 2968,
  "\u2581lay": 2969,
  "Pre": 2970,
  "\u2581Hall": 2971,
  "\u2581sun": 2972,
  "\u2581steps": 2973,
  "\u2581pen": 2974,
  "\u2581church": 2975,
  "\u2581average": 2976,
  "\u2581corresponding": 2977,
  "\u2581bed": 2978,
  "\u2581meaning": 2979,
  "\u2581Ir": 2980,
  "\u2581computer": 2981,
  "\u2581affect": 2982,
  "\u2581species": 2983,
  "ches": 2984,
  "iza": 2985,
  "\u2581termin": 2986,
  "\u2581cred": 2987,
  "\u2581''": 2988,
  "\u2581Mos": 2989,
  "\u2581connected": 2990,
  "\u2581cat": 2991,
  "\u2581north": 2992,
  "\u2581alloc": 2993,
  "\u2581Dist": 2994,
  ",-": 2995,
  "esis": 2996,
  "foot": 2997,
  "\u2581Seg": 2998,
  "\u2581president": 2999,
  "\u2581multip": 3000,
  "\u2581Function": 3001,
  "\u2581Bill": 3002,
  "\u2581walk": 3003,
  "place": 3004,
  "inte": 3005,
  "\u2581training": 3006,
  "atively": 3007,
  "\u2581spring": 3008,
  "phone": 3009,
  "One": 3010,
  "\u2581asking": 3011,
  "\u2581testing": 3012,
  "\u2581Book": 3013,
  "\u2581progress": 3014,
  "First": 3015,
  "\u2581>=": 3016,
  "mission": 3017,
  "ued": 3018,
  "\u2581ones": 3019,
  "aging": 3020,
  "izont": 3021,
  "\u2581choose": 3022,
  "loss": 3023,
  "ums": 3024,
  "\u2581beginning": 3025,
  "emy": 3026,
  "\u2581served": 3027,
  "options": 3028,
  "\u2581continue": 3029,
  "\u2581easier": 3030,
  "\u2581cos": 3031,
  ">>": 3032,
  "\u2581transfer": 3033,
  "\u2581pain": 3034,
  "irk": 3035,
  "\u2581counter": 3036,
  ")/": 3037,
  "\u2581dess": 3038,
  "\u2581Over": 3039,
  "\u2581America": 3040,
  "Me": 3041,
  ")-": 3042,
  "\u2581passing": 3043,
  "\u2581giving": 3044,
  "Cl": 3045,
  "}/": 3046,
  "angular": 3047,
  "\u2581launch": 3048,
  "sequ": 3049,
  "Am": 3050,
  "\u2581mix": 3051,
  "\u2581Museum": 3052,
  "iful": 3053,
  "issions": 3054,
  "\u2581solutions": 3055,
  "\u2581belong": 3056,
  "\u2581grid": 3057,
  "Mult": 3058,
  "\u2581requires": 3059,
  "\u2581teach": 3060,
  "\u2581square": 3061,
  "\u2581rules": 3062,
  "\u2581bur": 3063,
  "\u2581Mai": 3064,
  "\u2581tip": 3065,
  "overline": 3066,
  ")?": 3067,
  "\u2581hundred": 3068,
  "\u2581feet": 3069,
  "ancy": 3070,
  "\u2581money": 3071,
  "connect": 3072,
  "anges": 3073,
  "\u2581seconds": 3074,
  "akes": 3075,
  "\u2581operations": 3076,
  "uten": 3077,
  "\u2581Joseph": 3078,
  "\u2581Company": 3079,
  "\u2581sen": 3080,
  "\u2581associated": 3081,
  "\u2581containing": 3082,
  "oke": 3083,
  "uns": 3084,
  "anta": 3085,
  "\u2581anni": 3086,
  "\u2581bring": 3087,
  "\u2581concept": 3088,
  "\u2581supported": 3089,
  "\u2581Hans": 3090,
  "erv": 3091,
  "\u2581arriv": 3092,
  "\u2581probability": 3093,
  "\u2581Ra": 3094,
  "\u2581assist": 3095,
  "\u2581tests": 3096,
  "\u2581king": 3097,
  "\u2581Sum": 3098,
  "\u2581security": 3099,
  "\u2581basic": 3100,
  "clus": 3101,
  "Height": 3102,
  "\u2581tur": 3103,
  "PS": 3104,
  "\u2581external": 3105,
  "Top": 3106,
  "\u2581potential": 3107,
  "after": 3108,
  "scale": 3109,
  "\u2581south": 3110,
  "\u2581formula": 3111,
  "etc": 3112,
  "\u2581Smith": 3113,
  "ienne": 3114,
  "Mar": 3115,
  "\u2581matches": 3116,
  "\u2581worth": 3117,
  "\u2581felt": 3118,
  "izes": 3119,
  "\u2581surface": 3120,
  "\u2581Por": 3121,
  "gru": 3122,
  "[\\": 3123,
  "\u2581depends": 3124,
  "\u2581towards": 3125,
  "\u2581rank": 3126,
  "\u2581components": 3127,
  "\u2581checked": 3128,
  "airs": 3129,
  "\u2581dead": 3130,
  "\u2581hit": 3131,
  "\u2581equivalent": 3132,
  "\u2581During": 3133,
  "\u2581knowledge": 3134,
  "\u2581Fern": 3135,
  "\u2581Mot": 3136,
  "erve": 3137,
  "\u2581mid": 3138,
  "\u2581finally": 3139,
  "\u2581tut": 3140,
  "\u2581receive": 3141,
  "\u2581radio": 3142,
  "\u2581driver": 3143,
  "\u2581saved": 3144,
  "actor": 3145,
  "\u2581gar": 3146,
  "onal": 3147,
  "\u2581President": 3148,
  "\u2581\\,": 3149,
  "\u2581placed": 3150,
  "\u2581forms": 3151,
  "\u2581messages": 3152,
  "inf": 3153,
  "\u2581Good": 3154,
  "\u2581larger": 3155,
  "aper": 3156,
  "\u2581sea": 3157,
  "ulo": 3158,
  "\u2581mechan": 3159,
  "GB": 3160,
  "sets": 3161,
  "PA": 3162,
  "\u2581emb": 3163,
  "\u2581hour": 3164,
  "\u2581Fort": 3165,
  ")+": 3166,
  "fi": 3167,
  "\u2581pan": 3168,
  "\\)": 3169,
  "\u2581morning": 3170,
  "\u2581compare": 3171,
  "\u2581blue": 3172,
  "\u2581Ac": 3173,
  "\u2581middle": 3174,
  "\u2581shared": 3175,
  "ounded": 3176,
  "\u2581experience": 3177,
  "\u2581requests": 3178,
  "emph": 3179,
  "\u2581Another": 3180,
  "\u2581significant": 3181,
  "\u2581million": 3182,
  "\u2581thinking": 3183,
  "\u2581interval": 3184,
  "\u2581liv": 3185,
  "oe": 3186,
  "\u2581Ev": 3187,
  "Rem": 3188,
  "\u2581couple": 3189,
  "\u2581goal": 3190,
  "\u2581CD": 3191,
  "\u2581Because": 3192,
  "\u2581sor": 3193,
  "\u2581factor": 3194,
  "\u2581personal": 3195,
  "\u2581Dar": 3196,
  "\u2581adm": 3197,
  "\u2581Ext": 3198,
  "aa": 3199,
  "\u2581dynamic": 3200,
  "\u2581maintain": 3201,
  "tor": 3202,
  "\u2581choice": 3203,
  "\u2581flag": 3204,
  "icks": 3205,
  "\u2581Pen": 3206,
  "Rect": 3207,
  "\u2581Kr": 3208,
  "\u2581produced": 3209,
  "\u2581hot": 3210,
  "\u2581months": 3211,
  "\u2581eigen": 3212,
  "\u2581immediately": 3213,
  "\u2581online": 3214,
  "\u2581Base": 3215,
  "\u2581Canada": 3216,
  "}-": 3217,
  "\u2581Line": 3218,
  "\u2581Play": 3219,
  "\u2581becomes": 3220,
  "\u2581independent": 3221,
  "\u2581supposed": 3222,
  "\u2581degree": 3223,
  "\u2581desired": 3224,
  "\u2581alone": 3225,
  "\u2581applied": 3226,
  "Part": 3227,
  "\u2581pou": 3228,
  ".$": 3229,
  "\u2581reached": 3230,
  "tons": 3231,
  "\u2581articles": 3232,
  "\u2581maximum": 3233,
  "\u2581cm": 3234,
  "\u2581dra": 3235,
  "\u2581capital": 3236,
  "\u2581solved": 3237,
  "\u2581Mur": 3238,
  "etic": 3239,
  "\u2581Ren": 3240,
  "second": 3241,
  "\u2581hy": 3242,
  "dig": 3243,
  "Acc": 3244,
  "\u2581India": 3245,
  "}+": 3246,
  "fortunately": 3247,
  "\u2581Run": 3248,
  "ATH": 3249,
  "\u2581treat": 3250,
  "\u2581meas": 3251,
  "card": 3252,
  "\u2581layer": 3253,
  "\u2581rat": 3254,
  "\u2581${\\": 3255,
  "\u2581Tod": 3256,
  "Product": 3257,
  "\u2581upper": 3258,
  "\u2581Every": 3259,
  "},\\": 3260,
  "\u2581continued": 3261,
  "\u2581nice": 3262,
  "\u2581According": 3263,
  "\u2581undefined": 3264,
  "\u2581binary": 3265,
  "Current": 3266,
  "}}{": 3267,
  "bles": 3268,
  "\u2581align": 3269,
  "SV": 3270,
  "\u2581places": 3271,
  "\u2581primary": 3272,
  "\u2581conv": 3273,
  "\u2581visual": 3274,
  "\u2581Select": 3275,
  "atory": 3276,
  "=(": 3277,
  "iser": 3278,
  "sur": 3279,
  "iced": 3280,
  "\u2581board": 3281,
  "omial": 3282,
  "\u2581greater": 3283,
  "\u2581inn": 3284,
  "\u2581picture": 3285,
  "\u2581obtained": 3286,
  "\u2581construction": 3287,
  "\u2581Under": 3288,
  "\u2581edge": 3289,
  "\u2581experiment": 3290,
  "^{(": 3291,
  "____": 3292,
  "\u2581wouldn": 3293,
  "\u2581Washington": 3294,
  "\u2581category": 3295,
  "\u2581artist": 3296,
  ",.": 3297,
  "Fran": 3298,
  "\u2581rock": 3299,
  "\u2581gold": 3300,
  "\u2581weight": 3301,
  "\u2581spr": 3302,
  "}).": 3303,
  "\u2581gone": 3304,
  "DA": 3305,
  "\u2581answered": 3306,
  "\u2581rect": 3307,
  "\u2581yield": 3308,
  "\u2581lock": 3309,
  "prise": 3310,
  "\u2581odd": 3311,
  "\u2581produce": 3312,
  "\u2581Av": 3313,
  "textit": 3314,
  "\u2581Fa": 3315,
  "\u2581ship": 3316,
  "sey": 3317,
  "hline": 3318,
  "\u2581orient": 3319,
  "rent": 3320,
  "\u2581solid": 3321,
  "\u2581cart": 3322,
  "\u2581cab": 3323,
  "dots": 3324,
  "\u2581recent": 3325,
  "\u2581net": 3326,
  "Ste": 3327,
  ".\\": 3328,
  "ldots": 3329,
  "cles": 3330,
  "\u2581miles": 3331,
  "\u2581Ale": 3332,
  "\u2581entered": 3333,
  "\u2581Two": 3334,
  "\u2581includes": 3335,
  "\u2581Each": 3336,
  "elling": 3337,
  "\u2581straight": 3338,
  "\u2581Center": 3339,
  "\u2581European": 3340,
  "\u2581commer": 3341,
  "\u2581girl": 3342,
  "total": 3343,
  "\u2581Star": 3344,
  "\u2581suggested": 3345,
  "pal": 3346,
  "ometry": 3347,
  "\u2581sit": 3348,
  "\u2581Most": 3349,
  "\u2581favor": 3350,
  "\u2581entity": 3351,
  "\u2581Therefore": 3352,
  "\u2581Rh": 3353,
  "\u2581returning": 3354,
  "\u2581Value": 3355,
  "voir": 3356,
  "\u2581Tim": 3357,
  "\u2581Movie": 3358,
  "\u2581friends": 3359,
  "\u2581&=": 3360,
  "\u2581community": 3361,
  "\u2581drive": 3362,
  "Ass": 3363,
  "\u2581swe": 3364,
  "\u2581Mann": 3365,
  "\u2581increase": 3366,
  "}}$": 3367,
  "argo": 3368,
  "ads": 3369,
  "\u2581Law": 3370,
  "\u2581voc": 3371,
  "fri": 3372,
  "\u2581green": 3373,
  "\u2581Island": 3374,
  "\u2581diag": 3375,
  "aled": 3376,
  "\u2581train": 3377,
  "\u2581Division": 3378,
  ")=\\": 3379,
  "\u2581stay": 3380,
  "\u2581hers": 3381,
  "\u2581ready": 3382,
  "\u2581visible": 3383,
  "ulated": 3384,
  "\u2581smaller": 3385,
  "Max": 3386,
  "\u2581volume": 3387,
  "gre": 3388,
  "\u2581sport": 3389,
  "\u2581cook": 3390,
  "\u2581expand": 3391,
  "\u2581wet": 3392,
  "\u2581Bob": 3393,
  "/\\": 3394,
  "Ge": 3395,
  "while": 3396,
  "{(": 3397,
  "\u2581sufficient": 3398,
  "\u2581understanding": 3399,
  "\u2581Its": 3400,
  "\u2581wire": 3401,
  "uj": 3402,
  "\u2581relevant": 3403,
  "\u2581ago": 3404,
  "\u2581domin": 3405,
  "\u2581boy": 3406,
  "\u2581plant": 3407,
  "\u2581throws": 3408,
  "\u2581Rock": 3409,
  "\u2581office": 3410,
  "\u2581students": 3411,
  "\u2581California": 3412,
  "\u2581declared": 3413,
  "\u2581Republic": 3414,
  "\u2581champion": 3415,
  "\u2581Central": 3416,
  "isa": 3417,
  "\u2581fully": 3418,
  "\u2581Scott": 3419,
  "partment": 3420,
  "\u2581contract": 3421,
  "\u2581Ann": 3422,
  "\u2581Next": 3423,
  "\u2581disk": 3424,
  "atu": 3425,
  "\u2581games": 3426,
  "\u2581finite": 3427,
  "\u2581brother": 3428,
  "\u2581Integer": 3429,
  "\u2581colon": 3430,
  ")).": 3431,
  "\u2581wood": 3432,
  "\u2581kept": 3433,
  "\u2581provides": 3434,
  "Min": 3435,
  "\u2581Hal": 3436,
  "\u2581calculate": 3437,
  "\u2581ow": 3438,
  "wide": 3439,
  "\u2581score": 3440,
  "\u2581determine": 3441,
  "\u2581spaces": 3442,
  "\u2581appoint": 3443,
  "\u2581Tw": 3444,
  "\u2581race": 3445,
  "\u2581rid": 3446,
  "\u2581negative": 3447,
  "Car": 3448,
  "\u2581$.": 3449,
  "NE": 3450,
  "\u2581Real": 3451,
  "\u2581Old": 3452,
  "\u2581pull": 3453,
  "Long": 3454,
  ",$": 3455,
  "\u2581appropriate": 3456,
  "\u2581manner": 3457,
  "\u2581relation": 3458,
  "\u2581bul": 3459,
  "grade": 3460,
  "writ": 3461,
  "ifications": 3462,
  "dx": 3463,
  "\u2581leading": 3464,
  ")),": 3465,
  "when": 3466,
  "Case": 3467,
  "mbox": 3468,
  "\u2581shape": 3469,
  "itable": 3470,
  "\u2581election": 3471,
  "\u2581prep": 3472,
  "lot": 3473,
  "\u2581books": 3474,
  "\u2581USA": 3475,
  "\u2581ball": 3476,
  "\u2581Ram": 3477,
  "\u2581pure": 3478,
  "\u2581married": 3479,
  "\u2581recurs": 3480,
  "\u2581respectively": 3481,
  "\u2581Australia": 3482,
  "\u2581Ele": 3483,
  "\u2581charge": 3484,
  "aren": 3485,
  "\u2581dot": 3486,
  "ening": 3487,
  "\u2581finish": 3488,
  "\u2581feed": 3489,
  "room": 3490,
  "\u2581distinct": 3491,
  "anced": 3492,
  "\u2581Sel": 3493,
  "mus": 3494,
  "\u2581student": 3495,
  "\u2581notice": 3496,
  "\u2581Day": 3497,
  "\u2581fell": 3498,
  "\u2581absolute": 3499,
  "\u2581surr": 3500,
  "\u2581stood": 3501,
  "final": 3502,
  "enda": 3503,
  "ners": 3504,
  "\u2581moving": 3505,
  "\u2581basis": 3506,
  "\u2581Bus": 3507,
  "\u2581Far": 3508,
  "\u2581piece": 3509,
  "\u2581formed": 3510,
  "\u2581Daniel": 3511,
  "})$": 3512,
  "\u2581earth": 3513,
  "There": 3514,
  "\u2581++": 3515,
  "\u2581Game": 3516,
  "\u2581Which": 3517,
  "\u2581pip": 3518,
  "\u2581checking": 3519,
  "\u2581manager": 3520,
  "BO": 3521,
  "\u2581decided": 3522,
  "\u2581fif": 3523,
  "efficient": 3524,
  "\u2581proceed": 3525,
  "\u2581living": 3526,
  "\u2581successfully": 3527,
  "\u2581faster": 3528,
  "iring": 3529,
  "\u2581tools": 3530,
  "\u2581couldn": 3531,
  "ding": 3532,
  "{-": 3533,
  "\u2581predict": 3534,
  "\u2581ki": 3535,
  "\u2581Jim": 3536,
  "star": 3537,
  "nabla": 3538,
  "\u2581Although": 3539,
  "None": 3540,
  "black": 3541,
  "\u2581(-": 3542,
  "icket": 3543,
  "\u2581Original": 3544,
  "\u2581spl": 3545,
  "\u2581division": 3546,
  "\u2581efficient": 3547,
  "\u2581performed": 3548,
  "\u2581Carol": 3549,
  "\u2581Sand": 3550,
  "\u2581focus": 3551,
  "\u2581agre": 3552,
  "\u2581divis": 3553,
  "\u2581river": 3554,
  "\u2581caused": 3555,
  "uler": 3556,
  "nam": 3557,
  "\u2581fight": 3558,
  "\u2581Tri": 3559,
  "\u2581circle": 3560,
  "\u2581transport": 3561,
  "\u2581replaced": 3562,
  "\u2581Aud": 3563,
  "\u2581sequ": 3564,
  "\u2581{{": 3565,
  "ders": 3566,
  "esa": 3567,
  "\u2581Ly": 3568,
  "uy": 3569,
  "ilation": 3570,
  "\u2581storage": 3571,
  "\u2581terminal": 3572,
  "\u2581holds": 3573,
  "bul": 3574,
  "\"?": 3575,
  "Que": 3576,
  "\u2581Jud": 3577,
  "\u2581agree": 3578,
  "\u2581starts": 3579,
  "\u2581price": 3580,
  "\u2581organiz": 3581,
  "inu": 3582,
  "\u2581completed": 3583,
  "\u2581carry": 3584,
  "\u2581depending": 3585,
  "\u2581Our": 3586,
  "\u2581&\\": 3587,
  "aily": 3588,
  "\u2581designed": 3589,
  "break": 3590,
  "\u2581studio": 3591,
  "house": 3592,
  "success": 3593,
  "\u2581Juan": 3594,
  "\u2581stated": 3595,
  "hot": 3596,
  "amar": 3597,
  "\u2581opening": 3598,
  "\u2581programming": 3599,
  "\u2581letters": 3600,
  "\u2581beyond": 3601,
  "\u2581Further": 3602,
  "\u2581chart": 3603,
  "\u2581herself": 3604,
  "}=\\": 3605,
  "\u2581playing": 3606,
  "\u2581usage": 3607,
  "\u2581managed": 3608,
  "\u2581daughter": 3609,
  "\u2581hol": 3610,
  "\u2581anyway": 3611,
  "GC": 3612,
  "\u2581joined": 3613,
  "\u2581wild": 3614,
  "ools": 3615,
  "\u2581seeing": 3616,
  "\u2581procedure": 3617,
  "\u2581signed": 3618,
  "\u2581wind": 3619,
  "\u2581suffer": 3620,
  "\u2581tax": 3621,
  "idi": 3622,
  "\u2581chance": 3623,
  "\u2581dol": 3624,
  "iance": 3625,
  "\u2581depend": 3626,
  "uts": 3627,
  "km": 3628,
  "\u2581interested": 3629,
  "aro": 3630,
  "\u2581dedic": 3631,
  "\u2581lists": 3632,
  "\u2581earlier": 3633,
  "front": 3634,
  "\u2581hal": 3635,
  "\u2581susp": 3636,
  "illing": 3637,
  "||": 3638,
  "\u2581partition": 3639,
  "oda": 3640,
  "\u2581Win": 3641,
  "Last": 3642,
  "store": 3643,
  "\u2581observed": 3644,
  "rey": 3645,
  "\u2581Year": 3646,
  "Comple": 3647,
  "ician": 3648,
  "onic": 3649,
  "\u2581trick": 3650,
  ")^{": 3651,
  "Sim": 3652,
  "\u2581parallel": 3653,
  "\u2581chem": 3654,
  "\u2581twice": 3655,
  "\u2581representation": 3656,
  "\\%": 3657,
  "\u2581Carl": 3658,
  "\u2581reported": 3659,
  "\u2581Point": 3660,
  "\u2581internet": 3661,
  "\u2581carried": 3662,
  "axis": 3663,
  "asy": 3664,
  "\u2581suggestion": 3665,
  "\u2581phone": 3666,
  "lines": 3667,
  "\u2581bin": 3668,
  "free": 3669,
  "PC": 3670,
  "\u2581Once": 3671,
  "Red": 3672,
  "\u2581Enter": 3673,
  "\u2581health": 3674,
  "\u2581somewhere": 3675,
  "\u2581commit": 3676,
  "\u2581processing": 3677,
  "------------": 3678,
  "\u2581faire": 3679,
  "\u2581hun": 3680,
  "\u2581review": 3681,
  "\u2581limited": 3682,
  "\u2581serve": 3683,
  "\u2581uniform": 3684,
  "enth": 3685,
  "\u2581quickly": 3686,
  "\u2581cells": 3687,
  "\u2581fle": 3688,
  "\u2581foreign": 3689,
  "\u2581magn": 3690,
  "\u2581bank": 3691,
  "\u2581continuous": 3692,
  "\u2581presented": 3693,
  "\u2581Prov": 3694,
  "\u2581Both": 3695,
  "\u2581finding": 3696,
  "\u2581Hill": 3697,
  "\u2581intended": 3698,
  "\u2581Wars": 3699,
  "\u2581successful": 3700,
  "\u2581charg": 3701,
  "operatorname": 3702,
  "zero": 3703,
  "price": 3704,
  "\u2581Rome": 3705,
  "\u2581theorem": 3706,
  "\u2581entirely": 3707,
  "Next": 3708,
  "wig": 3709,
  "ests": 3710,
  "fit": 3711,
  "\u2581Organ": 3712,
  "CF": 3713,
  "\u2581Last": 3714,
  "\u2581offset": 3715,
  "\u2581minimum": 3716,
  "andon": 3717,
  "ifying": 3718,
  "ruit": 3719,
  "enced": 3720,
  "\u2581firm": 3721,
  "\u2581ring": 3722,
  "\u2581mel": 3723,
  "\u2581ul": 3724,
  "\u2581remains": 3725,
  "entially": 3726,
  "\u2581restrict": 3727,
  "\u2581previously": 3728,
  "live": 3729,
  "\u2581selection": 3730,
  "\u2581decre": 3731,
  "small": 3732,
  "\u2581projects": 3733,
  "\u2581latest": 3734,
  "king": 3735,
  "words": 3736,
  "ittee": 3737,
  "redu": 3738,
  "<<": 3739,
  "rial": 3740,
  "\u2581products": 3741,
  "\u2581adopt": 3742,
  "\u2581Only": 3743,
  "\u2581lem": 3744,
  "ponents": 3745,
  "]$": 3746,
  "ike": 3747,
  "\u2581sending": 3748,
  "umes": 3749,
  "opp": 3750,
  "\u2581unable": 3751,
  "\u2581Lee": 3752,
  "TS": 3753,
  "\u2581wide": 3754,
  "\u2581suff": 3755,
  "iego": 3756,
  "\u2581broken": 3757,
  "\u2581preced": 3758,
  "\u2581compared": 3759,
  "equiv": 3760,
  "illy": 3761,
  "teen": 3762,
  "kg": 3763,
  "aken": 3764,
  "\u2581fish": 3765,
  "\u2581Alexander": 3766,
  "\u2581reflect": 3767,
  "common": 3768,
  "\u2581clearly": 3769,
  "\u2581relationship": 3770,
  "ted": 3771,
  "\u2581aren": 3772,
  "tabular": 3773,
  "}$$": 3774,
  "\u2581Lake": 3775,
  "\u2581minor": 3776,
  "ints": 3777,
  "TC": 3778,
  "\u2581eight": 3779,
  "\u2581Dev": 3780,
  "MB": 3781,
  "\u2581remained": 3782,
  "\u2581detail": 3783,
  "\u2581mouse": 3784,
  "hs": 3785,
  "\u2581shift": 3786,
  "\u2581statements": 3787,
  "\u2581Sus": 3788,
  "\u2581debut": 3789,
  "\u2581reci": 3790,
  "\u2581tested": 3791,
  "allow": 3792,
  "blue": 3793,
  "\u2581aware": 3794,
  "\u2581Ven": 3795,
  "\u2581Final": 3796,
  "\u2581novel": 3797,
  "orter": 3798,
  "\u2581Germany": 3799,
  "\u2581beautiful": 3800,
  "\u2581neither": 3801,
  "cdots": 3802,
  "\u2581Jew": 3803,
  "\u2581Dor": 3804,
  "\u2581Sav": 3805,
  "Ro": 3806,
  "}),": 3807,
  "\u2581Ray": 3808,
  "rf": 3809,
  ")[": 3810,
  "\u2581confused": 3811,
  "\u2581mand": 3812,
  "\u2581algebra": 3813,
  "\u2581Current": 3814,
  "ifer": 3815,
  "\u2581scient": 3816,
  "\u2581older": 3817,
  "\u2581uns": 3818,
  "\u2581\u2581\u2581\u2581\u2581\u2581\u2581\u2581\u2581\u2581\u2581": 3819,
  "Match": 3820,
  "\u2581blank": 3821,
  "\u2581demand": 3822,
  "\u2581usual": 3823,
  "\u2581roll": 3824,
  "\u2581Number": 3825,
  "\u2581symmet": 3826,
  "\u2581Mult": 3827,
  "expected": 3828,
  "\u2581axis": 3829,
  "\u2581matching": 3830,
  "\u2581food": 3831,
  "\u2581ended": 3832,
  "\u2581involved": 3833,
  "\u2581chain": 3834,
  "cop": 3835,
  "anna": 3836,
  "anth": 3837,
  "umin": 3838,
  "\u2581packages": 3839,
  "\u2581pays": 3840,
  "points": 3841,
  "\u2581east": 3842,
  "\u2581spot": 3843,
  "Each": 3844,
  "\u2581append": 3845,
  "\u2581lab": 3846,
  "anging": 3847,
  "Mat": 3848,
  "\u2581Finally": 3849,
  "\u2581recover": 3850,
  "\u2581ensure": 3851,
  "Mark": 3852,
  "\u2581Matt": 3853,
  "\u2581unknown": 3854,
  "\u2581Brown": 3855,
  "\u2581resulting": 3856,
  "\u2581today": 3857,
  "\u2581buttons": 3858,
  "\u2581union": 3859,
  "\u2581Cost": 3860,
  "Note": 3861,
  "\u2581advice": 3862,
  "\u2581travel": 3863,
  "berto": 3864,
  "\u2581assigned": 3865,
  "\u2581award": 3866,
  "\u2581cluster": 3867,
  "\u2581sheet": 3868,
  "\u2581represented": 3869,
  "nb": 3870,
  "\u2581seven": 3871,
  "\u2581sister": 3872,
  "\u2581remaining": 3873,
  "func": 3874,
  "\u2581ban": 3875,
  "ims": 3876,
  "!\\": 3877,
  "\u2581listed": 3878,
  "\u2581knows": 3879,
  "\u2581tar": 3880,
  "\u2581ba": 3881,
  "\u2581Belg": 3882,
  "\u2581dimension": 3883,
  "Ang": 3884,
  "uming": 3885,
  "\u2581Marie": 3886,
  "\u2581Jon": 3887,
  "\u2581highest": 3888,
  "\u2581circum": 3889,
  "urer": 3890,
  "venue": 3891,
  "}\\\\": 3892,
  "\u2581Sign": 3893,
  "appro": 3894,
  "\u2581entries": 3895,
  "\u2581\\{": 3896,
  "\u2581market": 3897,
  "rank": 3898,
  "\u2581occurs": 3899,
  "\u2581Chinese": 3900,
  "\u2581Ken": 3901,
  "\u2581creates": 3902,
  "\u2581showed": 3903,
  "\u2581slightly": 3904,
  "\u2581reduce": 3905,
  "\\{": 3906,
  "\u2581respond": 3907,
  "\u2581Consider": 3908,
  "iki": 3909,
  "ients": 3910,
  "ells": 3911,
  "\u2581possibly": 3912,
  "\u2581stri": 3913,
  "prime": 3914,
  "\u2581twenty": 3915,
  "\u2581Mah": 3916,
  "clusion": 3917,
  "\u2581determined": 3918,
  "\u2581wall": 3919,
  "\u2581reset": 3920,
  "yan": 3921,
  "\u2581appearance": 3922,
  "loor": 3923,
  "\u2581throughout": 3924,
  "\u2581identity": 3925,
  "\u2581infer": 3926,
  "\u2581dates": 3927,
  "\u2581leaving": 3928,
  "\u2581Hence": 3929,
  "vest": 3930,
  "\u2581largest": 3931,
  "\u2581percent": 3932,
  "\u2581Women": 3933,
  "\u2581ay": 3934,
  "\u2581polynomial": 3935,
  "\u2581integral": 3936,
  "\u2581areas": 3937,
  "\u2581hyp": 3938,
  "\u2581Wy": 3939,
  "\u2581mistake": 3940,
  ")}{": 3941,
  "two": 3942,
  "\u2581batter": 3943,
  "\u2581decor": 3944,
  "\u2581eventually": 3945,
  "\u2581labor": 3946,
  "\u2581husband": 3947,
  "bat": 3948,
  "\u2581prepar": 3949,
  "\u2581increasing": 3950,
  "\u2581incorrect": 3951,
  "\u2581assuming": 3952,
  "\u2581Theorem": 3953,
  "\u2581Leon": 3954,
  "\u2581quart": 3955,
  "\u2581professional": 3956,
  "\u2581compute": 3957,
  "\u2581M\u00e9": 3958,
  "\u2581combination": 3959,
  "\u2581movement": 3960,
  "Spec": 3961,
  "retch": 3962,
  "Don": 3963,
  "\u2581harm": 3964,
  "\u2581Luc": 3965,
  "\u2581Texas": 3966,
  "\u2581reve": 3967,
  "\u2581repeated": 3968,
  "\u2581recently": 3969,
  "pling": 3970,
  "\u2581units": 3971,
  "\u2581tan": 3972,
  "\u2581audio": 3973,
  "\u2581coordinates": 3974,
  "\u2581Academy": 3975,
  "\u2581infinite": 3976,
  "\u2581adjust": 3977,
  "\u2581merge": 3978,
  "\u2581poster": 3979,
  "\u2581exhib": 3980,
  "\u2581ordered": 3981,
  "lets": 3982,
  "download": 3983,
  "\u2581lemma": 3984,
  "\u2581mad": 3985,
  "\u2581elimin": 3986,
  "\u2581spent": 3987,
  "Enter": 3988,
  "When": 3989,
  "\u2581fellow": 3990,
  "\u2581thousand": 3991,
  "\u2581extended": 3992,
  "aters": 3993,
  "\u2581blood": 3994,
  "\u2581pens": 3995,
  "\u2581filled": 3996,
  "\u2581raised": 3997,
  "\u2581temperature": 3998,
  "\u2581Spanish": 3999,
  "\u2581chosen": 4000,
  "\u2581horse": 4001,
  "\u2581originally": 4002,
  "\u2581Young": 4003,
  "\u2581Jane": 4004,
  "\u2581boundary": 4005,
  "Now": 4006,
  "=-": 4007,
  "\u2581happening": 4008,
  "\u2581Bla": 4009,
  "\u2581science": 4010,
  "\u2581implies": 4011,
  "\u2581Queen": 4012,
  "aret": 4013,
  "ership": 4014,
  "\u2581recorded": 4015,
  "\u2581scenario": 4016,
  "\u2581concent": 4017,
  "\u2581gas": 4018,
  "rate": 4019,
  "aped": 4020,
  "\u2581canvas": 4021,
  "*.": 4022,
  "screen": 4023,
  "chester": 4024,
  ")|": 4025,
  "person": 4026,
  "\u2581waiting": 4027,
  "\u2581sentence": 4028,
  "\u2581Italian": 4029,
  "\u2581noticed": 4030,
  "bing": 4031,
  "step": 4032,
  "osh": 4033,
  "\u2581gradu": 4034,
  "\u2581aqu": 4035,
  "PR": 4036,
  "\u2581putting": 4037,
  "\u2581purch": 4038,
  "\u2581smooth": 4039,
  "\u2581lived": 4040,
  "\u2581tells": 4041,
  "Here": 4042,
  "\u2581decision": 4043,
  "\u2581ends": 4044,
  "\u2581experien": 4045,
  "\u2581Fab": 4046,
  "\u2581Vi": 4047,
  "\u2581advantage": 4048,
  "prod": 4049,
  "\u2581span": 4050,
  "Ac": 4051,
  "once": 4052,
  "\u2581mission": 4053,
  "\u2581camera": 4054,
  "linear": 4055,
  "\u2581covered": 4056,
  "\u2581squ": 4057,
  "\u2581paint": 4058,
  "\u2581rewrite": 4059,
  "\u2581Harry": 4060,
  "\u2581equations": 4061,
  "\u2581plane": 4062,
  "\u2581angle": 4063,
  "\u2581trees": 4064,
  "\u2581Walter": 4065,
  "\u2581dress": 4066,
  "]\\": 4067,
  "\u2581stad": 4068,
  "abc": 4069,
  "andra": 4070,
  "neq": 4071,
  "\u2581logs": 4072,
  "\u2581Mol": 4073,
  "\u2581wants": 4074,
  "\u2581occurred": 4075,
  "\u2581segment": 4076,
  "\u2581players": 4077,
  "\u2581stuck": 4078,
  "Any": 4079,
  "dfrac": 4080,
  "\u2581Us": 4081,
  "\u2581clim": 4082,
  "\u2581Ali": 4083,
  "kes": 4084,
  "aby": 4085,
  "\u2581powers": 4086,
  "\u2581transaction": 4087,
  "\u2581CPU": 4088,
  "\u2581depth": 4089,
  "\u2581rare": 4090,
  "\u2581bon": 4091,
  "\u2581Carlos": 4092,
  "\u2581specifically": 4093,
  "\u2581stars": 4094,
  "\u2581agent": 4095,
  "\u2581coefficient": 4096,
  "Jo": 4097,
  "\u2581fresh": 4098,
  "Your": 4099,
  "\u2581mathemat": 4100,
  "\u2581Engine": 4101,
  "}+\\": 4102,
  "month": 4103,
  "\u2581MS": 4104,
  "shift": 4105,
  "\u2581celebr": 4106,
  "\u2581paths": 4107,
  "\u2581marked": 4108,
  "\u2581teams": 4109,
  "\u2581countries": 4110,
  "\u2581spin": 4111,
  "\u2581Jones": 4112,
  "white": 4113,
  "\u2581blocks": 4114,
  "$)": 4115,
  "\u2581manage": 4116,
  "\u2581discovered": 4117,
  "\u2581Before": 4118,
  "\u2581Dig": 4119,
  "Expression": 4120,
  "\u2581stock": 4121,
  "\u2581Product": 4122,
  "\u2581inputs": 4123,
  "\u2581learned": 4124,
  "\u2581eye": 4125,
  "\u2581extend": 4126,
  "\u2581Find": 4127,
  "\u2581motor": 4128,
  "bie": 4129,
  "\u2581resid": 4130,
  "\u2581finale": 4131,
  "%)": 4132,
  "{'": 4133,
  "\u2581Hard": 4134,
  "\u2581pairs": 4135,
  "\u2581evening": 4136,
  "\u2581flash": 4137,
  "\u2581minute": 4138,
  "aylor": 4139,
  "\u2581AD": 4140,
  "&\\": 4141,
  "\u2581technique": 4142,
  "\u2581maps": 4143,
  "inda": 4144,
  "ifies": 4145,
  "utive": 4146,
  "\u2581removing": 4147,
  "yc": 4148,
  "}|": 4149,
  "before": 4150,
  "\u2581stopped": 4151,
  "\u2581decide": 4152,
  "\u2581capac": 4153,
  "\u2581widget": 4154,
  "\u2581bill": 4155,
  "\u2581contained": 4156,
  "\u2581Joe": 4157,
  "\u2581meter": 4158,
  "\u2581pent": 4159,
  "Sum": 4160,
  "ectors": 4161,
  "\u2581Little": 4162,
  "night": 4163,
  "\u2581corner": 4164,
  "\u2581emer": 4165,
  "\u2581Cross": 4166,
  "DP": 4167,
  "\u2581sides": 4168,
  "\u2581bird": 4169,
  "\u2581dog": 4170,
  "\u2581guitar": 4171,
  "auss": 4172,
  "aco": 4173,
  "\u2581cold": 4174,
  "\u2581Given": 4175,
  "\u2581feeling": 4176,
  "initial": 4177,
  "\u2581Anna": 4178,
  "\u2581doll": 4179,
  "\u2581consum": 4180,
  "activ": 4181,
  "\u2581Equ": 4182,
  "\u2581Simon": 4183,
  "enses": 4184,
  "\u2581hyper": 4185,
  "\u2581Their": 4186,
  "\u2581PM": 4187,
  "\u2581vice": 4188,
  "\u2581orders": 4189,
  "\u2581trade": 4190,
  "cli": 4191,
  "\u2581subset": 4192,
  "\u2581leaves": 4193,
  "Math": 4194,
  "anned": 4195,
  "\u2581hair": 4196,
  "\u2581wa": 4197,
  "zeta": 4198,
  "\u2581actor": 4199,
  "\u2581fly": 4200,
  "\u2581island": 4201,
  "she": 4202,
  "iders": 4203,
  "\u2581scheme": 4204,
  ")}\\": 4205,
  "\u2581Excel": 4206,
  "\u2581Hay": 4207,
  "\u2581weeks": 4208,
  "iting": 4209,
  "\u2581vertical": 4210,
  "\u2581cycle": 4211,
  "\u2581enjo": 4212,
  "\u2581outer": 4213,
  "\u2581supply": 4214,
  "eman": 4215,
  "\u2581accident": 4216,
  "\u2581\\]": 4217,
  "cases": 4218,
  "wan": 4219,
  "\u2581Canadian": 4220,
  "\u2581apps": 4221,
  "\u2581py": 4222,
  "\u2581Again": 4223,
  "\u2581ignore": 4224,
  "\u2581television": 4225,
  "\u2581bear": 4226,
  "\u2581arbitrary": 4227,
  "\u2581---": 4228,
  "gression": 4229,
  "icia": 4230,
  "\u2581Figure": 4231,
  "\u2581onto": 4232,
  "\u2581forth": 4233,
  "\u2581rose": 4234,
  "uba": 4235,
  "aming": 4236,
  "\u2581diam": 4237,
  "coming": 4238,
  "\u2581Unfortunately": 4239,
  "contains": 4240,
  "\u2581pointed": 4241,
  "nom": 4242,
  "\u2581represents": 4243,
  "\u2581resolved": 4244,
  "\u2581campaign": 4245,
  "\u2581Nik": 4246,
  "Total": 4247,
  "\u2581verify": 4248,
  "\u2581converted": 4249,
  "\u2581Ron": 4250,
  "apple": 4251,
  "\u2581Earth": 4252,
  "\u2581opposite": 4253,
  "\u2581pool": 4254,
  "\u2581Andrew": 4255,
  "\u2581drawing": 4256,
  "\u2581gain": 4257,
  "\u2581fourth": 4258,
  "\u2581Problem": 4259,
  "\u2581Double": 4260,
  "apes": 4261,
  "})\\": 4262,
  "\u2581Mir": 4263,
  "abilities": 4264,
  "\u2581doctor": 4265,
  "\u2581listen": 4266,
  "\u2581consists": 4267,
  "asm": 4268,
  "Chr": 4269,
  "John": 4270,
  "\u2581promise": 4271,
  "\u2581psych": 4272,
  "\u2581People": 4273,
  "\u2581Williams": 4274,
  "}},": 4275,
  "\u2581inject": 4276,
  "\u2581crow": 4277,
  "\u2581DO": 4278,
  "\u2581increased": 4279,
  "acher": 4280,
  "\u2581curve": 4281,
  "\u2581subs": 4282,
  "iation": 4283,
  "\u2581isol": 4284,
  "beans": 4285,
  "\u2581gather": 4286,
  "\u2581Johnson": 4287,
  "iek": 4288,
  "\u2581vote": 4289,
  "Only": 4290,
  "\u2581Case": 4291,
  "\u2581encounter": 4292,
  "equal": 4293,
  "Op": 4294,
  "\u2581lif": 4295,
  "\u2581voltage": 4296,
  "nings": 4297,
  "\u2581vac": 4298,
  "Then": 4299,
  "ummy": 4300,
  "\u2581chair": 4301,
  "\u2581Sab": 4302,
  "\u2581nast": 4303,
  "\u2581meeting": 4304,
  "\u2581Adam": 4305,
  "\u2581televis": 4306,
  "\u2581ft": 4307,
  "\u2581Comput": 4308,
  "\u2581gall": 4309,
  "\u2581summer": 4310,
  "game": 4311,
  "\u2581determin": 4312,
  "\u2581requirement": 4313,
  "\u2581Term": 4314,
  "\u2581invent": 4315,
  "\u2581monitor": 4316,
  "\u2581parents": 4317,
  "\u2581effective": 4318,
  "\u2581llam": 4319,
  "\u2581assumption": 4320,
  "\u2581reverse": 4321,
  "asketball": 4322,
  "\\}$": 4323,
  "\u2581radius": 4324,
  "Second": 4325,
  "Pa": 4326,
  "\u2581Fu": 4327,
  "\u2581lit": 4328,
  ")*": 4329,
  "\u2581Jackson": 4330,
  "(.": 4331,
  "\u2581$|": 4332,
  "hang": 4333,
  "\u2581contribution": 4334,
  "\u2581studies": 4335,
  "\u2581floor": 4336,
  "\u2581positions": 4337,
  "\u2581portion": 4338,
  "cover": 4339,
  "\u2581piano": 4340,
  "variable": 4341,
  "\u2581integers": 4342,
  "Where": 4343,
  "\u2581increment": 4344,
  "aded": 4345,
  "\u2581constraints": 4346,
  "cred": 4347,
  "\u2581styles": 4348,
  "\u2581street": 4349,
  "occer": 4350,
  "\u2581colors": 4351,
  "\u2581ratio": 4352,
  "\u2581customer": 4353,
  "\u2581electron": 4354,
  "\u2581$[": 4355,
  "\u2581searching": 4356,
  "\u2581purposes": 4357,
  "\u2581leads": 4358,
  "\u2581sand": 4359,
  "children": 4360,
  "\u2581-\\": 4361,
  "\u2581Fred": 4362,
  "\u2581thick": 4363,
  "\u2581thrown": 4364,
  "\u2581clock": 4365,
  "\u2581Sund": 4366,
  "answer": 4367,
  "\u2581manufact": 4368,
  "qquad": 4369,
  "\u2581raise": 4370,
  "\u2581deliver": 4371,
  "\u2581assumed": 4372,
  "Let": 4373,
  "\u2581Exp": 4374,
  "\u2581Fish": 4375,
  "\u2581dent": 4376,
  "\u2581vectors": 4377,
  "\u2581Greg": 4378,
  "\u2581birth": 4379,
  "\u2581drawn": 4380,
  "\u2581asc": 4381,
  "\u2581stick": 4382,
  "\u2581lives": 4383,
  "\u2581kill": 4384,
  "\u2581PR": 4385,
  "\u2581proport": 4386,
  "ogs": 4387,
  "\u2581adj": 4388,
  "\u2581Apple": 4389,
  "\u2581Boston": 4390,
  "\u2581kg": 4391,
  "defined": 4392,
  "ritt": 4393,
  "\u2581commercial": 4394,
  "Di": 4395,
  "\u2581officer": 4396,
  "\u2581Suppose": 4397,
  "Please": 4398,
  "\u2581flat": 4399,
  "}}(": 4400,
  "\u2581Indust": 4401,
  "deg": 4402,
  "\u2581turns": 4403,
  "issues": 4404,
  "LC": 4405,
  "\u2581lies": 4406,
  "\u2581critical": 4407,
  "\u2581Jeff": 4408,
  "\u2581$(\\": 4409,
  "\u2581reduced": 4410,
  "\u2581anywhere": 4411,
  "'(": 4412,
  "\u2581typically": 4413,
  "\u2581timer": 4414,
  "\u2581expressions": 4415,
  "\u2581aim": 4416,
  "\u2581keyboard": 4417,
  "\u2581professor": 4418,
  "]}": 4419,
  "\u2581owner": 4420,
  "\u2581AP": 4421,
  "\u2581certificate": 4422,
  "pages": 4423,
  "\u2581ell": 4424,
  "\u2581neighbor": 4425,
  "\u2581Greek": 4426,
  "\u2581repeat": 4427,
  "uan": 4428,
  "bc": 4429,
  "$(": 4430,
  "\u2581afterwards": 4431,
  "\u2581laid": 4432,
  "pie": 4433,
  "watch": 4434,
  "eff": 4435,
  "\u2581lov": 4436,
  "itute": 4437,
  "tere": 4438,
  "\u2581connections": 4439,
  "\u2581Cart": 4440,
  "\u2581formation": 4441,
  "\u2581combined": 4442,
  "}}{\\": 4443,
  "Br": 4444,
  "\u2581apart": 4445,
  "\u2581identify": 4446,
  "\u2581Ten": 4447,
  "RS": 4448,
  "ounding": 4449,
  "aph": 4450,
  "\u2581Four": 4451,
  "\u2581veg": 4452,
  "\u2581schools": 4453,
  "\u2581overall": 4454,
  "\u2581tail": 4455,
  "\u2581traffic": 4456,
  "aver": 4457,
  "}}}": 4458,
  "\u2581principle": 4459,
  "\u2581sau": 4460,
  "\u2581Gust": 4461,
  "MC": 4462,
  "\u2581keeping": 4463,
  "\u2581offered": 4464,
  "\u2581shut": 4465,
  "\u2581cool": 4466,
  "\u2581factory": 4467,
  "\u2581paid": 4468,
  "dimensional": 4469,
  "\u2581pin": 4470,
  "\u2581Taylor": 4471,
  "imum": 4472,
  "Find": 4473,
  "\u2581boys": 4474,
  "\u2581destination": 4475,
  "\u2581dream": 4476,
  "bell": 4477,
  "\u2581$\\{": 4478,
  "\u2581stone": 4479,
  "\u2581dash": 4480,
  "pmatrix": 4481,
  "aller": 4482,
  "origin": 4483,
  "\u2581bow": 4484,
  "\u2581Luis": 4485,
  "Div": 4486,
  "\u2581Neg": 4487,
  "\u2581cancel": 4488,
  "eed": 4489,
  "\u2581quarter": 4490,
  "quet": 4491,
  "\u2581caught": 4492,
  "\u2581lands": 4493,
  "\u2581bounded": 4494,
  "Sm": 4495,
  "tar": 4496,
  "\u2581notation": 4497,
  "\u2581electric": 4498,
  "\u2581semi": 4499,
  "\u2581differences": 4500,
  "\u2581Net": 4501,
  "mean": 4502,
  "\u2581estimate": 4503,
  "\u2581vertex": 4504,
  "\u2581necessarily": 4505,
  "DC": 4506,
  "alem": 4507,
  "\u2581Later": 4508,
  "May": 4509,
  "\u2581sorted": 4510,
  "\u2581disabled": 4511,
  "\u2581accomplish": 4512,
  "there": 4513,
  "ees": 4514,
  "\u2581hall": 4515,
  "\u2581episode": 4516,
  "\u2581Italy": 4517,
  "books": 4518,
  "\u2581jel": 4519,
  "iri": 4520,
  "Day": 4521,
  "kr": 4522,
  "\u2581Three": 4523,
  "\u2581college": 4524,
  "tion": 4525,
  "\u2581edges": 4526,
  "&&": 4527,
  "}-\\": 4528,
  "\u2581adds": 4529,
  "\u2581chose": 4530,
  "\u2581pieces": 4531,
  "\u2581regions": 4532,
  "related": 4533,
  "aling": 4534,
  "\u2581Chris": 4535,
  "\u2581assignment": 4536,
  "\u2581Mike": 4537,
  "\u2581calculated": 4538,
  "\u2581Ash": 4539,
  "riel": 4540,
  "agon": 4541,
  "\u2581mixed": 4542,
  "edge": 4543,
  "\u2581heat": 4544,
  "\u2581obviously": 4545,
  "Fin": 4546,
  "Year": 4547,
  "\u2581velocity": 4548,
  "\u2581normally": 4549,
  "\u2581Egypt": 4550,
  "\u2581glass": 4551,
  "\u2581initially": 4552,
  "\u2581kr": 4553,
  "\u2581Kim": 4554,
  "\u2581Reb": 4555,
  "itut": 4556,
  "\u2581female": 4557,
  "\u2581seat": 4558,
  "\u2581USB": 4559,
  "\u2581houses": 4560,
  "\u2581pressure": 4561,
  "ogether": 4562,
  "\u2581commission": 4563,
  "Will": 4564,
  "\u2581aud": 4565,
  "\u2581boat": 4566,
  "\u2581organization": 4567,
  "\u2581animal": 4568,
  "Price": 4569,
  "\u2581blow": 4570,
  "\u2581....": 4571,
  "\u2581officers": 4572,
  "\u2581separated": 4573,
  "clock": 4574,
  "mic": 4575,
  "\u2581Cass": 4576,
  "'$": 4577,
  "union": 4578,
  "pip": 4579,
  "\u2581vary": 4580,
  "\u2581Common": 4581,
  "\u2581Robin": 4582,
  "\u2581\u00d7": 4583,
  "\u2581provider": 4584,
  "\u2581minimal": 4585,
  "pressed": 4586,
  "\u2581thoughts": 4587,
  "\u2581concert": 4588,
  "\u2581Els": 4589,
  "\u2581clients": 4590,
  "groups": 4591,
  "Del": 4592,
  "tan": 4593,
  "\u2581families": 4594,
  "\u2581bil": 4595,
  "\u2581hint": 4596,
  "\u2581expansion": 4597,
  "]=": 4598,
  "apest": 4599,
  "\u2581Marsh": 4600,
  "\u2581league": 4601,
  "\u2581MB": 4602,
  "\u2581distributed": 4603,
  "\u2581prepared": 4604,
  "hes": 4605,
  "\u2581opens": 4606,
  "\u2581invest": 4607,
  "\u2581patch": 4608,
  "mers": 4609,
  "\u2581Kent": 4610,
  "\u2581silver": 4611,
  "\u2581capacity": 4612,
  "\u2581completion": 4613,
  "\u2581interior": 4614,
  "quel": 4615,
  "Sol": 4616,
  "\u2581Bry": 4617,
  "!(": 4618,
  "\u2581constructed": 4619,
  "\u2581Facebook": 4620,
  "\u2581yellow": 4621,
  "\u2581pointing": 4622,
  "\u2581possibility": 4623,
  "\u2581digits": 4624,
  "ogram": 4625,
  "/$": 4626,
  "cluded": 4627,
  "QU": 4628,
  "\u2581duty": 4629,
  "\u2581expressed": 4630,
  "\u2581ol": 4631,
  "\u2581dimensions": 4632,
  "\u2581mouth": 4633,
  "Dist": 4634,
  "water": 4635,
  "\u2581standing": 4636,
  "Center": 4637,
  "embers": 4638,
  "opher": 4639,
  "\u2581digital": 4640,
  "convert": 4641,
  "\u2581receiving": 4642,
  "\u2581flags": 4643,
  "\u2581whereas": 4644,
  "\u2581hospital": 4645,
  "\u2581fashion": 4646,
  "\u2581exceed": 4647,
  "\u2581Otherwise": 4648,
  "She": 4649,
  "radius": 4650,
  "\u2581Mathemat": 4651,
  "original": 4652,
  "lyn": 4653,
  "\u2581approaches": 4654,
  "Pres": 4655,
  "<\\": 4656,
  "country": 4657,
  "\u2581matrices": 4658,
  "lla": 4659,
  "\u2581Cos": 4660,
  "\u2581denote": 4661,
  "eral": 4662,
  "After": 4663,
  "\u2581identical": 4664,
  "\u2581plays": 4665,
  "\u2581bomb": 4666,
  "\u2581holding": 4667,
  "\u2581medic": 4668,
  "\u2581accuracy": 4669,
  "textrm": 4670,
  "\u2581About": 4671,
  "\u2581digit": 4672,
  "\u2581Bach": 4673,
  "\u2581recommended": 4674,
  "\u2581reads": 4675,
  "\u2581cub": 4676,
  "\u2581grew": 4677,
  "\u2581majority": 4678,
  "lett": 4679,
  "%,": 4680,
  "aligned": 4681,
  "\u2581frequently": 4682,
  "\u2581essentially": 4683,
  "\u2581reports": 4684,
  "\u2581decimal": 4685,
  "\u2581DC": 4686,
  "\u2581simpler": 4687,
  "\u2581dropped": 4688,
  "ental": 4689,
  "\u2581strategy": 4690,
  "Tim": 4691,
  "rob": 4692,
  "\u2581marriage": 4693,
  "\u2581diagram": 4694,
  "\u2581composed": 4695,
  "\u2581missed": 4696,
  "\u2581Meg": 4697,
  "\u2581rotation": 4698,
  "\u2581copied": 4699,
  "\u2581consistent": 4700,
  "\u2581drink": 4701,
  "\u2581matters": 4702,
  "\u2581rendered": 4703,
  "\u2581Eth": 4704,
  "\u2581relatively": 4705,
  "\u2581Jord": 4706,
  "\u2581influen": 4707,
  "onds": 4708,
  "\u2581vertices": 4709,
  "alter": 4710,
  "\u2581knowing": 4711,
  "Area": 4712,
  "\u2581Mik": 4713,
  "vex": 4714,
  "\u2581Fun": 4715,
  "\u2581Florida": 4716,
  "\u2581buildings": 4717,
  "cart": 4718,
  "bara": 4719,
  "brace": 4720,
  "\u2581vin": 4721,
  "\u2581transformation": 4722,
  "\u2581Nick": 4723,
  "raction": 4724,
  "\u2581considering": 4725,
  "\u2581AM": 4726,
  "arters": 4727,
  "ibles": 4728,
  "\u2581factors": 4729,
  "\u2581produces": 4730,
  "\u2581competition": 4731,
  "\u2581Hann": 4732,
  "\u2581developer": 4733,
  "\u2581plans": 4734,
  "\u2581suitable": 4735,
  "andy": 4736,
  "\u2581quot": 4737,
  "\u2581observations": 4738,
  "\u2581occurr": 4739,
  "\u2581staff": 4740,
  "\u2581sections": 4741,
  "\u2581divided": 4742,
  "\u2581Without": 4743,
  "\u2581calculation": 4744,
  "Month": 4745,
  "arian": 4746,
  "\u2581hang": 4747,
  "\u2581translation": 4748,
  "{[": 4749,
  "\u2581parties": 4750,
  "pla": 4751,
  "\u2581Steve": 4752,
  "Two": 4753,
  "\u2581figures": 4754,
  "called": 4755,
  "\u2581girls": 4756,
  "\u2581Rose": 4757,
  "\u2581regional": 4758,
  "\u2581Laur": 4759,
  "\u2581candidate": 4760,
  "\u2581Ja": 4761,
  ".(": 4762,
  "\u2581imagine": 4763,
  "without": 4764,
  "\u2581responsible": 4765,
  "will": 4766,
  "\u2581rub": 4767,
  "\u2581finds": 4768,
  "\u2581movie": 4769,
  "ometric": 4770,
  "numerable": 4771,
  "\u2581lose": 4772,
  "pend": 4773,
  "\u2581indicates": 4774,
  "\u2581park": 4775,
  "\u2581politician": 4776,
  "\u2581Mov": 4777,
  "\u2581observe": 4778,
  "\u2581inhab": 4779,
  "mont": 4780,
  "\u2581extremely": 4781,
  "\u2581Swift": 4782,
  "\u2581addresses": 4783,
  "hspace": 4784,
  "\u2581Roger": 4785,
  "intern": 4786,
  "\u2581greatest": 4787,
  "\u2581nine": 4788,
  "\u2581activities": 4789,
  "\u2581Democr": 4790,
  "Fa": 4791,
  "emi": 4792,
  "\u2581Victoria": 4793,
  "\u2581daily": 4794,
  "\u2581orth": 4795,
  "\u2581Cel": 4796,
  "\u2581approximately": 4797,
  "\u2581saving": 4798,
  "\u2581translate": 4799,
  "\u2581laws": 4800,
  "\u2581trial": 4801,
  "\u2581male": 4802,
  "\u2581denomin": 4803,
  "\u2581dependent": 4804,
  "\u2581storm": 4805,
  "\u2581pipe": 4806,
  "\u2581attended": 4807,
  "\u2581Ludwig": 4808,
  "\u2581department": 4809,
  "\u2581growth": 4810,
  "\u2581Asia": 4811,
  "\u2581everyone": 4812,
  "\u2581attend": 4813,
  "\u2581tries": 4814,
  "ups": 4815,
  "Term": 4816,
  "\u2581Write": 4817,
  "[-": 4818,
  "\u2581locations": 4819,
  "ctors": 4820,
  "\u2581achieved": 4821,
  "________": 4822,
  "!)": 4823,
  "\u2581cities": 4824,
  "\u2581allowing": 4825,
  "liver": 4826,
  "\u2581skip": 4827,
  "\u2581duration": 4828,
  "BB": 4829,
  "\u2581outputs": 4830,
  "multicolumn": 4831,
  "\u2581combine": 4832,
  "\u2581destroyed": 4833,
  "\u2581stores": 4834,
  "\u2581displays": 4835,
  "\u2581instant": 4836,
  "\u2581ahead": 4837,
  "\u2581Marc": 4838,
  "agram": 4839,
  "\u2581AL": 4840,
  "\u2581rise": 4841,
  "round": 4842,
  "\u2581opera": 4843,
  "\u2581degrees": 4844,
  "\u2581treatment": 4845,
  "amount": 4846,
  "\u2581passes": 4847,
  "aches": 4848,
  "\u2581exchange": 4849,
  "\u2581chef": 4850,
  "uli": 4851,
  "wt": 4852,
  "osing": 4853,
  "ered": 4854,
  "such": 4855,
  "\u2581lots": 4856,
  "/(": 4857,
  "\u2581companies": 4858,
  "\u2581inequality": 4859,
  "\u2581copies": 4860,
  "dash": 4861,
  "\u2581Indeed": 4862,
  "SU": 4863,
  "\u2581sad": 4864,
  "\u2581AC": 4865,
  "$_": 4866,
  "\u2581jar": 4867,
  "\u2581CE": 4868,
  "\u2581ros": 4869,
  "\u2581shr": 4870,
  "\u2581Express": 4871,
  "\u2581fro": 4872,
  "\u2581sale": 4873,
  "\u2581Bez": 4874,
  "\u2581NE": 4875,
  "\u2581horizontal": 4876,
  "gency": 4877,
  "\u2581evaluate": 4878,
  "\u2581synth": 4879,
  "\u2581Eric": 4880,
  "\u2581sports": 4881,
  "icians": 4882,
  "\u2581suit": 4883,
  "\u2581quantity": 4884,
  "\u2581attempts": 4885,
  "\u2581tournament": 4886,
  "anny": 4887,
  "Ag": 4888,
  "\u2581Princi": 4889,
  "imeter": 4890,
  "\u2581figured": 4891,
  "gry": 4892,
  "\u2581pret": 4893,
  "icious": 4894,
  "\u2581Convert": 4895,
  "between": 4896,
  "hire": 4897,
  "\u2581coordinate": 4898,
  "\u2581weather": 4899,
  "\u2581wed": 4900,
  "approx": 4901,
  "HS": 4902,
  "\u2581magazine": 4903,
  "\u2581facing": 4904,
  "\u2581keeps": 4905,
  "\u2581Patrick": 4906,
  "\u2581machines": 4907,
  "\u2581ice": 4908,
  "\u2581Say": 4909,
  "\u2581sail": 4910,
  "voice": 4911,
  "\u2581Philip": 4912,
  "ented": 4913,
  "\u2581bunch": 4914,
  "floor": 4915,
  "specific": 4916,
  "clean": 4917,
  "\u2581cher": 4918,
  "\u2581pictures": 4919,
  "Look": 4920,
  "\u2581gram": 4921,
  "\u2581cd": 4922,
  "\u2581brand": 4923,
  "\u2581Total": 4924,
  "Dig": 4925,
  "erem": 4926,
  "\u2581ski": 4927,
  "ulus": 4928,
  "\u2581animals": 4929,
  "\u2581snow": 4930,
  "\\,\\": 4931,
  "\u2581Corporation": 4932,
  "\u2581worse": 4933,
  "changed": 4934,
  "\u2581patterns": 4935,
  "\u2581smart": 4936,
  "\u2581concerned": 4937,
  "otted": 4938,
  "\u2581Wed": 4939,
  "\u2581papers": 4940,
  "erg": 4941,
  "\u2581awarded": 4942,
  "\u2581hex": 4943,
  "amps": 4944,
  "cook": 4945,
  "\u2581anymore": 4946,
  "\u2581newly": 4947,
  "Using": 4948,
  "fish": 4949,
  "iley": 4950,
  "\u2581Gem": 4951,
  "\u2581Clar": 4952,
  "\u2581Cz": 4953,
  "\u2581DVD": 4954,
  "\u2581arrang": 4955,
  "\u2581affected": 4956,
  "\u2581owned": 4957,
  "\u2581puts": 4958,
  "\u2581launched": 4959,
  "\u2581ton": 4960,
  "\u2581olymp": 4961,
  "\u2581furn": 4962,
  "\u2581composition": 4963,
  "\u2581replacing": 4964,
  "\u2581fundamental": 4965,
  "\u2581Tony": 4966,
  "\u2581accounts": 4967,
  "\u2581ordinary": 4968,
  "\u2581Samuel": 4969,
  "\u2581cookie": 4970,
  "antry": 4971,
  "Multi": 4972,
  "|^": 4973,
  "\u2581Gib": 4974,
  "BE": 4975,
  "\u2581Gene": 4976,
  "\u2581subsequent": 4977,
  "icion": 4978,
  "izar": 4979,
  "\u2581layers": 4980,
  "\u2581measures": 4981,
  "\u2581photo": 4982,
  "\u2581pressed": 4983,
  "\u2581applying": 4984,
  ")>": 4985,
  "\u2581dx": 4986,
  "\u2581destin": 4987,
  "elect": 4988,
  "\u2581quadr": 4989,
  "ears": 4990,
  "tha": 4991,
  "\u2581association": 4992,
  "$?": 4993,
  "\u2581observation": 4994,
  "\u2581agreed": 4995,
  "\u2581shadow": 4996,
  "\u2581Week": 4997,
  "Initial": 4998,
  "\u2581satisfy": 4999,
  "%.": 5000,
  "chestra": 5001,
  "umble": 5002,
  "\u2581scored": 5003,
  "\u2581applic": 5004,
  "\u2581accessible": 5005,
  "\u2581dry": 5006,
  "\u2581reasonable": 5007,
  "\u2581interview": 5008,
  "They": 5009,
  "\u2581sequences": 5010,
  "closed": 5011,
  ")}$": 5012,
  "Rightarrow": 5013,
  "\u2581winning": 5014,
  "underline": 5015,
  "displaystyle": 5016,
  "anu": 5017,
  "[(": 5018,
  "\u2581Comple": 5019,
  "\u2581worker": 5020,
  "obi": 5021,
  "\u2581buy": 5022,
  "\u2581tall": 5023,
  "\u2581identified": 5024,
  "\u2581typical": 5025,
  "letter": 5026,
  "\u2581growing": 5027,
  "\u2581poly": 5028,
  "\u2581teacher": 5029,
  "}&": 5030,
  "\u2581computed": 5031,
  "\u2581employed": 5032,
  "\u2581individuals": 5033,
  "\u2581$-": 5034,
  "\u2581Brian": 5035,
  "Mac": 5036,
  "algebra": 5037,
  "\u2581equals": 5038,
  "\u2581planet": 5039,
  "\u2581fruit": 5040,
  "\u2581representing": 5041,
  "\u2581sizes": 5042,
  "\u2581satisfied": 5043,
  "Final": 5044,
  "-)": 5045,
  "oses": 5046,
  "\u00e9li": 5047,
  "\u2581hack": 5048,
  "\u2581historical": 5049,
  "\u2581Ay": 5050,
  "\u2581definitions": 5051,
  "\u2581performing": 5052,
  "\u2581opposed": 5053,
  "Try": 5054,
  "\u2581writes": 5055,
  "\u2581sty": 5056,
  "\u2581Guy": 5057,
  "\u2581heads": 5058,
  "\u2581cards": 5059,
  "\u2581estimated": 5060,
  "\u2581pitch": 5061,
  "Allow": 5062,
  "estic": 5063,
  "\u2581fraction": 5064,
  "*,": 5065,
  "who": 5066,
  "\u2581worry": 5067,
  "\u2581Got": 5068,
  "\u2581conclusion": 5069,
  "\u2581sends": 5070,
  "\u2581festival": 5071,
  "\u2581careful": 5072,
  "iona": 5073,
  "\u2581scientific": 5074,
  "AE": 5075,
  "\u2581Paulo": 5076,
  "\u2581rou": 5077,
  "ordinate": 5078,
  "since": 5079,
  "\u2581ic": 5080,
  "\u2581medical": 5081,
  "cius": 5082,
  "Other": 5083,
  "\u2581stretch": 5084,
  "\u2581expecting": 5085,
  "basic": 5086,
  "\u2581coefficients": 5087,
  "\u2581Jam": 5088,
  "\u2581Academ": 5089,
  "\u2581adult": 5090,
  "\u2581stabil": 5091,
  "\u2581corresponds": 5092,
  "\u2581roles": 5093,
  "binom": 5094,
  "\u2581hole": 5095,
  "\u2581propose": 5096,
  "{{\\": 5097,
  "\u2581credit": 5098,
  "\u2581entities": 5099,
  "die": 5100,
  "\u2581trig": 5101,
  "\u2581aid": 5102,
  "\u2581moves": 5103,
  "\u2581accurate": 5104,
  "ipped": 5105,
  "\u2581sitting": 5106,
  "\u2581endpoint": 5107,
  "\u2581tracks": 5108,
  "\u2581numerical": 5109,
  "\u2581Mario": 5110,
  "\u2581boxes": 5111,
  "\u2581witness": 5112,
  "\u2581flight": 5113,
  "\u2581computation": 5114,
  "\u2581realize": 5115,
  "\u2581derivative": 5116,
  "linewidth": 5117,
  "\u2581geometry": 5118,
  "\u2581Alice": 5119,
  "icular": 5120,
  "\u2581Represent": 5121,
  "\u2581serving": 5122,
  "\u2581senior": 5123,
  "\u2581Sunday": 5124,
  "\u2581journey": 5125,
  "issa": 5126,
  "berry": 5127,
  "\u2581adopted": 5128,
  "...,": 5129,
  "\u2581ham": 5130,
  "\u2581Future": 5131,
  "oten": 5132,
  "\u2581university": 5133,
  "\u2581MP": 5134,
  "\u2581bou": 5135,
  "High": 5136,
  "\u2581realized": 5137,
  "\u2581attempted": 5138,
  "\u2581Notice": 5139,
  "*(": 5140,
  "anas": 5141,
  "Arr": 5142,
  "\u2581inverse": 5143,
  "\u2581occupied": 5144,
  "<-": 5145,
  "\u2581begins": 5146,
  "\u2581proven": 5147,
  "\u2581increases": 5148,
  "wich": 5149,
  "\u2581ABC": 5150,
  "\u2581confidence": 5151,
  "\u2581garden": 5152,
  "\u2581divide": 5153,
  "\u2581particle": 5154,
  "\u2581aller": 5155,
  "\u2581Furthermore": 5156,
  "\u2581pint": 5157,
  "\u2581patient": 5158,
  "\u2581seek": 5159,
  "enie": 5160,
  "\u2581floating": 5161,
  "\u2581collected": 5162,
  "\u2581downloaded": 5163,
  "\u2581sales": 5164,
  "\u2581Isabel": 5165,
  "\u2581sorting": 5166,
  "writing": 5167,
  "\u2581Ivan": 5168,
  "\u2581Based": 5169,
  "\u2581bigger": 5170,
  "viously": 5171,
  "\u2581frames": 5172,
  "\u2581dow": 5173,
  "\u2581describes": 5174,
  "\u2581criteria": 5175,
  "nez": 5176,
  "circle": 5177,
  "\u2581beat": 5178,
  "acent": 5179,
  "usted": 5180,
  "\u2581Bert": 5181,
  "weet": 5182,
  "\u2581visited": 5183,
  "\u2581surprise": 5184,
  "\u2581breaking": 5185,
  "\u2581offers": 5186,
  "\u2581grant": 5187,
  "\u2581wat": 5188,
  "days": 5189,
  "\u2581rectangle": 5190,
  "\u2581breaks": 5191,
  "\u2581Labor": 5192,
  "idents": 5193,
  "\u2581secondary": 5194,
  "\u2581confirmed": 5195,
  "\u2581claims": 5196,
  "\u2581hotel": 5197,
  "\u2581recursive": 5198,
  "\u2581rotate": 5199,
  "\u2581sevent": 5200,
  "\u2581dealing": 5201,
  "encing": 5202,
  "\u2581polar": 5203,
  "occup": 5204,
  "good": 5205,
  "\u2581roots": 5206,
  "\u2581vest": 5207,
  "igration": 5208,
  "\u2581generates": 5209,
  "\u2581connecting": 5210,
  "\u2581immediate": 5211,
  "\u2581Due": 5212,
  "\u2581mom": 5213,
  "\u2581reality": 5214,
  "mx": 5215,
  "\u2581Mars": 5216,
  "\"].": 5217,
  "\u2581recording": 5218,
  "\u2581Gram": 5219,
  "\u2581Diego": 5220,
  "\u2581ecc": 5221,
  "rical": 5222,
  "\u2581tick": 5223,
  "\u2581granted": 5224,
  "\u2581replacement": 5225,
  "inton": 5226,
  "\u2581Volume": 5227,
  "\u2581separately": 5228,
  "\u2581significantly": 5229,
  "\u2581dedicated": 5230,
  "inate": 5231,
  "\u2581orbit": 5232,
  "\u2581battery": 5233,
  "\u2581measured": 5234,
  "ishes": 5235,
  "\u2581disco": 5236,
  "licity": 5237,
  "\u2581wal": 5238,
  "\u2581Through": 5239,
  "\u2581claimed": 5240,
  "sha": 5241,
  "izations": 5242,
  "uting": 5243,
  "\u2581solving": 5244,
  "\u2581nin": 5245,
  ")$$": 5246,
  "\u2581diver": 5247,
  "\u2581Assuming": 5248,
  "\u2581walked": 5249,
  "\u2581Michigan": 5250,
  "\u2581facts": 5251,
  "\u2581coup": 5252,
  "+(": 5253,
  "avor": 5254,
  "\u2581regardless": 5255,
  "\u2581Clark": 5256,
  "\u2581disease": 5257,
  "\u2581ending": 5258,
  "hed": 5259,
  "\u2581satisfies": 5260,
  "\u2581Target": 5261,
  "generate": 5262,
  "\u2581gard": 5263,
  "\u2581workers": 5264,
  "\u2581Building": 5265,
  "ieves": 5266,
  "\u2581oil": 5267,
  "oplus": 5268,
  "\u2581thousands": 5269,
  "\u2581calculations": 5270,
  "umps": 5271,
  "\u2581triangle": 5272,
  "\u2581dollars": 5273,
  "oking": 5274,
  "aining": 5275,
  "\u2581faces": 5276,
  "However": 5277,
  "\u2581Initial": 5278,
  "\u2581rain": 5279,
  "iture": 5280,
  "\u2581Lincoln": 5281,
  "\u2581Lind": 5282,
  "\u2581Cook": 5283,
  "\u2581fired": 5284,
  "\u2581[(": 5285,
  "craft": 5286,
  "\u2581Among": 5287,
  "\u2581=\\": 5288,
  "\u2581sick": 5289,
  "\u2581worst": 5290,
  "\u2581scalar": 5291,
  "\u2581balance": 5292,
  "ipping": 5293,
  "Also": 5294,
  "\u2581brown": 5295,
  "\u2581Josef": 5296,
  "\u2581recall": 5297,
  ")--": 5298,
  "\u2581sho": 5299,
  "\u2581BC": 5300,
  "Alex": 5301,
  "\u2581economic": 5302,
  "\u2581converting": 5303,
  "atrice": 5304,
  "\u2581comparing": 5305,
  "}>": 5306,
  "\u2581Howard": 5307,
  "door": 5308,
  "***": 5309,
  "\u2581characteristic": 5310,
  "\u2581Rat": 5311,
  "\u2581yards": 5312,
  "Theta": 5313,
  "keep": 5314,
  "fac": 5315,
  "\u2581trip": 5316,
  "\u2581yields": 5317,
  "mapsto": 5318,
  "\u2581+\\": 5319,
  "\u2581precisely": 5320,
  "\u2581gained": 5321,
  "\u2581administration": 5322,
  "have": 5323,
  "\u2581ns": 5324,
  "\u2581sector": 5325,
  "three": 5326,
  "\u2581extr": 5327,
  "\u2581eat": 5328,
  "\u2581Sho": 5329,
  "\u2581physics": 5330,
  "\u2581insect": 5331,
  "\u2581annual": 5332,
  "\u2581AB": 5333,
  "\u2581effectively": 5334,
  "\u2581crew": 5335,
  "square": 5336,
  "written": 5337,
  "\u2581dice": 5338,
  "cca": 5339,
  "\u2581jobs": 5340,
  "\u2581closer": 5341,
  "\u2581clubs": 5342,
  "itionally": 5343,
  "\u2581Christmas": 5344,
  "\u2581conclude": 5345,
  "ifference": 5346,
  "\u2581twelve": 5347,
  "\u2581intersection": 5348,
  "\u2581kinds": 5349,
  "rx": 5350,
  "*\\": 5351,
  "ked": 5352,
  "outs": 5353,
  "-(": 5354,
  "\u2581afternoon": 5355,
  "\u2581stops": 5356,
  "\u2581constants": 5357,
  "Win": 5358,
  "\u2581contrib": 5359,
  "\u2581photograph": 5360,
  "ifts": 5361,
  "\u2581willing": 5362,
  "pot": 5363,
  "\u2581Krist": 5364,
  "\u2581homes": 5365,
  "\u2581Bird": 5366,
  "^{-\\": 5367,
  "\u2581aside": 5368,
  "\u2581contest": 5369,
  "\u2581bean": 5370,
  "\u2581subjects": 5371,
  "\u2581dinner": 5372,
  "\u2581strip": 5373,
  "four": 5374,
  "\u2581expanded": 5375,
  "\u2581guest": 5376,
  "\u2581Dave": 5377,
  "\u2581reflection": 5378,
  "liv": 5379,
  "\u2581Tax": 5380,
  "arks": 5381,
  "\u2581income": 5382,
  "ablo": 5383,
  ")));": 5384,
  "\u2581farm": 5385,
  "\u2581rational": 5386,
  "\u2581Disney": 5387,
  "\u2581swap": 5388,
  "\u2581dance": 5389,
  "\u2581birds": 5390,
  "\u2581convin": 5391,
  "\u2581mile": 5392,
  "\u2581Hend": 5393,
  "odge": 5394,
  "every": 5395,
  "\u2581Fernando": 5396,
  "\u2581marks": 5397,
  "\u2581uncertain": 5398,
  "\u2581cup": 5399,
  "\u2581Third": 5400,
  "\u2581loved": 5401,
  "\u2581surprised": 5402,
  "\u2581equally": 5403,
  "care": 5404,
  "\u2581\\[\\": 5405,
  "\u2581sons": 5406,
  "\u2581listing": 5407,
  "\u2581agricult": 5408,
  "-$": 5409,
  "\u2581conducted": 5410,
  "\u2581bott": 5411,
  "\u2581entering": 5412,
  "multip": 5413,
  "\u2581respective": 5414,
  "\u2581sq": 5415,
  "stud": 5416,
  "Amount": 5417,
  "\u2581bought": 5418,
  "\u2581partner": 5419,
  "\u2581Grant": 5420,
  "because": 5421,
  "\\}": 5422,
  "\u2581directions": 5423,
  "\u2581RAM": 5424,
  "\u2581Moz": 5425,
  "\u2581counts": 5426,
  "\u2581Senate": 5427,
  "agers": 5428,
  "\u2581volumes": 5429,
  "\u2581Chi": 5430,
  "\u2581encountered": 5431,
  "\u2581continues": 5432,
  "\u2581\\;": 5433,
  "\u2581weights": 5434,
  "\u2581rh": 5435,
  "icted": 5436,
  "\u2581fabric": 5437,
  "omon": 5438,
  "\u2581desert": 5439,
  "icky": 5440,
  "\u2581driven": 5441,
  "\u2581knock": 5442,
  "\u2581combinations": 5443,
  "cost": 5444,
  "including": 5445,
  "Paul": 5446,
  "\u2581flowers": 5447,
  "\u2581|\\": 5448,
  "\u2581Jordan": 5449,
  "\u2581shop": 5450,
  "\u2581Billy": 5451,
  "\u2581threw": 5452,
  "\u2581Area": 5453,
  "\u2581FO": 5454,
  "friend": 5455,
  "\u2581arrive": 5456,
  "\u2581symmetric": 5457,
  "\u2581medium": 5458,
  "\u2581citizens": 5459,
  "\u2581Margaret": 5460,
  "olly": 5461,
  "ysz": 5462,
  "\u2581Six": 5463,
  "\u2581Urs": 5464,
  "\u2581Natural": 5465,
  "uca": 5466,
  "\u2581neighborhood": 5467,
  "\u2581accum": 5468,
  "\u2581bread": 5469,
  "\u2581transferred": 5470,
  "\u2581graphs": 5471,
  "\u2581symmetry": 5472,
  "week": 5473,
  "\u2581namely": 5474,
  "XY": 5475,
  "eras": 5476,
  "\u2581covers": 5477,
  "\u2581iPhone": 5478,
  "\u2581Draw": 5479,
  "\u2581Nad": 5480,
  "\u2581magnitude": 5481,
  "Sur": 5482,
  "icing": 5483,
  "\u2581Vik": 5484,
  "\u2581Barbara": 5485,
  "bird": 5486,
  "urance": 5487,
  "ithmetic": 5488,
  "\u2581buried": 5489,
  "Miss": 5490,
  "\u2581sees": 5491,
  "!,": 5492,
  "\u2581plants": 5493,
  "\u2581Moore": 5494,
  "\u2581***": 5495,
  "\u2581fifth": 5496,
  "\u2581proportion": 5497,
  "\u2581drama": 5498,
  "\u2581convex": 5499,
  "initely": 5500,
  "\u2581cars": 5501,
  "Her": 5502,
  "\u2581veget": 5503,
  "\u2581damage": 5504,
  "\u2581plug": 5505,
  "\u2581abund": 5506,
  "\u2581Gabriel": 5507,
  "Christ": 5508,
  "\u2581picked": 5509,
  "\u2581indicated": 5510,
  "\u2581qualified": 5511,
  "\u2581council": 5512,
  "oby": 5513,
  "burn": 5514,
  "\u2581strictly": 5515,
  "\u2581recognize": 5516,
  "hour": 5517,
  "$).": 5518,
  "Before": 5519,
  "\u2581intervals": 5520,
  "\u2581revers": 5521,
  ")\\\\": 5522,
  "\u2581exha": 5523,
  "pair": 5524,
  "\u2581moon": 5525,
  "\u2581Adding": 5526,
  "\u2581tang": 5527,
  "\u2581advert": 5528,
  "\u2581teaching": 5529,
  "termin": 5530,
  "\u2581distributions": 5531,
  "\u2581cultiv": 5532,
  "\u2581cov": 5533,
  "\u2581situations": 5534,
  "\u2581selecting": 5535,
  "avier": 5536,
  "ulty": 5537,
  "\u2581experienced": 5538,
  "\u2581spend": 5539,
  "\u2581assistance": 5540,
  "\u2581neck": 5541,
  "\u2581wheel": 5542,
  "Common": 5543,
  "\u2581hockey": 5544,
  "\u2581\u2581\u2581\u2581\u2581\u2581\u2581\u2581\u2581\u2581\u2581\u2581\u2581\u2581\u2581": 5545,
  "\u2581Bruce": 5546,
  "\u2581Christopher": 5547,
  "\u2581quad": 5548,
  "\\]": 5549,
  "rooms": 5550,
  "omas": 5551,
  "cx": 5552,
  "\u2581signs": 5553,
  "\u2581Queens": 5554,
  "ighth": 5555,
  "finite": 5556,
  "iors": 5557,
  "\u2581Donald": 5558,
  "\u2581consecutive": 5559,
  "student": 5560,
  "lings": 5561,
  "esian": 5562,
  "olen": 5563,
  "\u2581rear": 5564,
  "\u2581planning": 5565,
  "\u2581survey": 5566,
  "\u2581employee": 5567,
  "\u2581wine": 5568,
  "\u2581prepare": 5569,
  "\u2581Sold": 5570,
  "\u2581laptop": 5571,
  "\u2581evaluated": 5572,
  "shop": 5573,
  "\u2581losing": 5574,
  "\u2581fifty": 5575,
  "rh": 5576,
  "}{(": 5577,
  "\u2581exclude": 5578,
  "\u2581hen": 5579,
  "\u2581Besides": 5580,
  "\u2581easiest": 5581,
  "\u2581smallest": 5582,
  "\u2581organized": 5583,
  "\u2581mental": 5584,
  "\u2581rang": 5585,
  ")\",": 5586,
  "cross": 5587,
  "\u2581museum": 5588,
  "inge": 5589,
  "\u2581altogether": 5590,
  "umph": 5591,
  "\u2581Marco": 5592,
  "\u2581Side": 5593,
  "\u2581excess": 5594,
  "\u2581payment": 5595,
  "visor": 5596,
  "\u2581median": 5597,
  "\u2581Opera": 5598,
  "irement": 5599,
  "!=": 5600,
  "ematic": 5601,
  "\u2581mountains": 5602,
  "\u2581peak": 5603,
  ")},": 5604,
  "\u2581fancy": 5605,
  "\u2581Sarah": 5606,
  "distance": 5607,
  "\u2581Square": 5608,
  "\u2581rates": 5609,
  "\u2581Nat": 5610,
  "\u2581variation": 5611,
  "life": 5612,
  "abi": 5613,
  "ebook": 5614,
  "\u2581GB": 5615,
  "Med": 5616,
  "\u2581circular": 5617,
  "\u2581Joan": 5618,
  "\u2581Know": 5619,
  "speed": 5620,
  "\u2581Kevin": 5621,
  "\u2581gig": 5622,
  "inks": 5623,
  "\u2581tower": 5624,
  "\u2581sharing": 5625,
  "abol": 5626,
  "\u2581expensive": 5627,
  "\u2581license": 5628,
  "\u2581rice": 5629,
  "\u2581merged": 5630,
  "asts": 5631,
  "\u2581sell": 5632,
  "Cancel": 5633,
  "izers": 5634,
  "\u2581scores": 5635,
  "\u2581carrying": 5636,
  "\u2581lake": 5637,
  "\u2581holder": 5638,
  "\u2581grade": 5639,
  ".$$": 5640,
  "\u2581revolution": 5641,
  "\u2581coin": 5642,
  "except": 5643,
  "\u2581driving": 5644,
  "David": 5645,
  "\u2581asks": 5646,
  "\u2581wear": 5647,
  "angles": 5648,
  "uits": 5649,
  "\u2581entrance": 5650,
  "\u2581bag": 5651,
  "they": 5652,
  "\u2581mirror": 5653,
  "\u2581hits": 5654,
  "\u2581winner": 5655,
  "}^{-": 5656,
  "\u2581busy": 5657,
  "\u2581allocated": 5658,
  "\u2581complement": 5659,
  "\u2581valley": 5660,
  "\u2581rooms": 5661,
  "\u2581lowest": 5662,
  "alia": 5663,
  "\u2581diagonal": 5664,
  "\u2581percentage": 5665,
  "\u2581attra": 5666,
  "\u2581newspaper": 5667,
  "ABC": 5668,
  "\u2581Kath": 5669,
  "complex": 5670,
  "\u2581-(": 5671,
  "\u2581intermediate": 5672,
  "verage": 5673,
  "\u2581serves": 5674,
  "\u2581egg": 5675,
  "\u2581vehicle": 5676,
  "\u2581Memorial": 5677,
  "take": 5678,
  "\u2581Oliver": 5679,
  "\u2581depos": 5680,
  "\u2581mos": 5681,
  "\u2581coff": 5682,
  "factor": 5683,
  "\u2581gift": 5684,
  "\u2581Oliv": 5685,
  "\u2581deck": 5686,
  "dra": 5687,
  "\u2581Additionally": 5688,
  "\u2581Gest": 5689,
  "zia": 5690,
  "teenth": 5691,
  "\u2581consisting": 5692,
  "yard": 5693,
  "rah": 5694,
  "\u2581receiver": 5695,
  "\u2581exposed": 5696,
  "cling": 5697,
  "ologist": 5698,
  "\u2581waters": 5699,
  "\u2581COVID": 5700,
  "\u2581Upon": 5701,
  "mill": 5702,
  "\u2581fert": 5703,
  "imb": 5704,
  ")}{\\": 5705,
  "\u2581GC": 5706,
  "TT": 5707,
  "\u2581estate": 5708,
  "\u2581choices": 5709,
  "\u2581potentially": 5710,
  "\u2581permut": 5711,
  "\u2581younger": 5712,
  "\u2581audience": 5713,
  "\u2581fare": 5714,
  "\u2581wol": 5715,
  "\u2581kilom": 5716,
  "\u2581Constitution": 5717,
  "}))": 5718,
  "\u2581falls": 5719,
  "gets": 5720,
  "erves": 5721,
  "\u2581unity": 5722,
  "\u2581adjacent": 5723,
  "\u2581delivered": 5724,
  "\u2581cot": 5725,
  "\u2581SU": 5726,
  "\u2581charged": 5727,
  ")..": 5728,
  "\u2581Mind": 5729,
  "fli": 5730,
  "\u2581denotes": 5731,
  "\u2581Similarly": 5732,
  "\u2581Johnny": 5733,
  "Supp": 5734,
  ")!": 5735,
  "lette": 5736,
  "\u2581elections": 5737,
  "\u2581Benjamin": 5738,
  "Cla": 5739,
  "\u2581governor": 5740,
  "\u2581ranges": 5741,
  "\u2581\u00a0": 5742,
  "\u2581towns": 5743,
  "\u2581assistant": 5744,
  "{$\\": 5745,
  "\u2581\\$": 5746,
  "\u2581puzz": 5747,
  "\u2581Cort": 5748,
  "\u2581Bull": 5749,
  "matically": 5750,
  "\u2581basketball": 5751,
  "\u2581runt": 5752,
  "\u2581slower": 5753,
  "both": 5754,
  "\u2581falling": 5755,
  "\u2581customers": 5756,
  "\u2581actu": 5757,
  "\u2581migration": 5758,
  "Mr": 5759,
  "othy": 5760,
  "\u2581upgrad": 5761,
  ")_": 5762,
  "\u2581Harris": 5763,
  "\u2581heavily": 5764,
  "\u2581Either": 5765,
  "\u2581rs": 5766,
  "\u2581reduction": 5767,
  "rimin": 5768,
  "\u2581explos": 5769,
  "Sal": 5770,
  "\u2581simplest": 5771,
  "\u2581cyl": 5772,
  "\u2581measurements": 5773,
  "erek": 5774,
  "\u2581schedule": 5775,
  "\u2581painting": 5776,
  "\u2581($\\": 5777,
  "\u2581stim": 5778,
  "\u2581recursion": 5779,
  ")_{": 5780,
  "atoes": 5781,
  "\u2581planned": 5782,
  "\u2581randomly": 5783,
  "wel": 5784,
  "\u2581nearest": 5785,
  "\u2581brackets": 5786,
  "aturday": 5787,
  "\u2581shorter": 5788,
  "\u2581translated": 5789,
  "ervation": 5790,
  "\u2581(+": 5791,
  "\u2581Calcul": 5792,
  "\u2581mapped": 5793,
  "\u2581Morgan": 5794,
  "antine": 5795,
  "\u2581receives": 5796,
  "\u2581purchase": 5797,
  "\u2581earned": 5798,
  "\u2581resulted": 5799,
  "\u2581computing": 5800,
  "Comput": 5801,
  "\u2581*.": 5802,
  "\u2581photos": 5803,
  "continu": 5804,
  "\u2581Today": 5805,
  "\u2581mini": 5806,
  "\u2581Jimmy": 5807,
  "&=": 5808,
  "\u2581watched": 5809,
  "\u2581distinguished": 5810,
  "\u2581sli": 5811,
  "eton": 5812,
  "\u2581newer": 5813,
  "\u2581wonderful": 5814,
  "\u2581BE": 5815,
  "\u2581contributions": 5816,
  "cancel": 5817,
  "tax": 5818,
  "Fact": 5819,
  "\u2581Price": 5820,
  "\u2581sphere": 5821,
  "\u2581inferior": 5822,
  "\u2581involves": 5823,
  "\u2581stem": 5824,
  "itudes": 5825,
  "five": 5826,
  "atio": 5827,
  "\u2581distinguish": 5828,
  "obb": 5829,
  "Ben": 5830,
  "\u2581composite": 5831,
  ")+\\": 5832,
  "\u2581crown": 5833,
  "\u2581purchased": 5834,
  "\u2581simplified": 5835,
  "\u2581reaching": 5836,
  "\u2581sod": 5837,
  "\u2581forgotten": 5838,
  "Fern": 5839,
  "\u2581Ryan": 5840,
  "walk": 5841,
  "\u2581astronom": 5842,
  "owed": 5843,
  "\u2581forty": 5844,
  "\u2581gravity": 5845,
  "\u2581duplicates": 5846,
  "\u2581bucket": 5847,
  "\u2581Bruno": 5848,
  "\u2581inclus": 5849,
  "\u2581Children": 5850,
  "\u2581actress": 5851,
  "\u2581bid": 5852,
  "\u2581hundreds": 5853,
  "gray": 5854,
  "\u2581trunc": 5855,
  "nake": 5856,
  "enders": 5857,
  "\u2581cookies": 5858,
  "\u2581dedu": 5859,
  "\u2581arranged": 5860,
  "\u2581flav": 5861,
  "$:": 5862,
  "\u2581Alberto": 5863,
  "kb": 5864,
  "\u2581[-": 5865,
  "akers": 5866,
  "oving": 5867,
  "\u2581equipment": 5868,
  "\u2581Edge": 5869,
  "\u2581charges": 5870,
  "\u2581simplify": 5871,
  "\u2581representative": 5872,
  "\u2581Jen": 5873,
  "\u2581committee": 5874,
  "eared": 5875,
  "\u2581legs": 5876,
  "\u2581repet": 5877,
  "\u2581remainder": 5878,
  "\u2581poll": 5879,
  "\u2581Mitch": 5880,
  "ruits": 5881,
  "\u2581watching": 5882,
  "eding": 5883,
  "\u2581bond": 5884,
  "tac": 5885,
  "\u2581fed": 5886,
  "\u2581counting": 5887,
  "\u2581whe": 5888,
  "ipt": 5889,
  "\u2581cow": 5890,
  "\u2581invert": 5891,
  "\u2581switching": 5892,
  "\u2581B\u00e9": 5893,
  "implies": 5894,
  "),(": 5895,
  "\u2581Mack": 5896,
  "\u2581scholar": 5897,
  ")}}": 5898,
  "\u2581tied": 5899,
  "major": 5900,
  "\u2581conference": 5901,
  "velope": 5902,
  "\u2581brothers": 5903,
  "\u2581{-": 5904,
  "\u2581Vice": 5905,
  "qua": 5906,
  "Company": 5907,
  ")^{\\": 5908,
  "iums": 5909,
  "\u2581Gun": 5910,
  "bling": 5911,
  "\u2581closest": 5912,
  "jack": 5913,
  "\u2581scheduled": 5914,
  "Power": 5915,
  "icken": 5916,
  "\u2581accepts": 5917,
  "\u2581slot": 5918,
  "\u2581Charlotte": 5919,
  "\u2581Stefan": 5920,
  "!.": 5921,
  "eses": 5922,
  "\u2581algebraic": 5923,
  "\u2581appearing": 5924,
  "\u2581Sof": 5925,
  "ounce": 5926,
  "\u2581costs": 5927,
  "]{\\": 5928,
  "acci": 5929,
  "\u2581baseball": 5930,
  "GM": 5931,
  "\u2581Round": 5932,
  "Tom": 5933,
  ")^{-": 5934,
  "\u2581Setting": 5935,
  "\u2581bulk": 5936,
  "\u2581wins": 5937,
  "ushing": 5938,
  "\u2581pir": 5939,
  "\u2581preserved": 5940,
  "\u2581performances": 5941,
  "\u2581engineering": 5942,
  "\u2581ace": 5943,
  "\u2581covering": 5944,
  "\u2581profit": 5945,
  "\u2581multiplication": 5946,
  "\u2581candidates": 5947,
  "\u2581Uri": 5948,
  "\u2581Laura": 5949,
  "\u2581Between": 5950,
  "\u2581reserved": 5951,
  "\u2581involving": 5952,
  "\u2581lux": 5953,
  "\u2581Catherine": 5954,
  "ordered": 5955,
  "\u2581shortcut": 5956,
  "\u2581simultaneously": 5957,
  "\u2581Kings": 5958,
  "\u2581relationships": 5959,
  "\u2581Andrea": 5960,
  "\u2581Roberto": 5961,
  "\u2581dil": 5962,
  "\u2581afford": 5963,
  "\u2581Jason": 5964,
  "\u2581Jorge": 5965,
  "choose": 5966,
  "\u2581reviews": 5967,
  "\u2581Species": 5968,
  "\u2581amaz": 5969,
  "\u2581Mother": 5970,
  "\u2581estimates": 5971,
  "Mad": 5972,
  "elter": 5973,
  "\u2581courses": 5974,
  "\u2581domains": 5975,
  "\u2581Lion": 5976,
  "\u2581triple": 5977,
  "\u2581outcome": 5978,
  "must": 5979,
  "Har": 5980,
  "\u2581Rosa": 5981,
  "\u2581SN": 5982,
  "\u2581scar": 5983,
  "\u2581operate": 5984,
  "tery": 5985,
  "\u2581classic": 5986,
  "\u2581partially": 5987,
  "\u2581Julia": 5988,
  "\u2581walking": 5989,
  "\u2581partners": 5990,
  "\u2581Princess": 5991,
  "\u2581patients": 5992,
  "$;": 5993,
  "\u2581restricted": 5994,
  "\u2581seats": 5995,
  "\u2581neighb": 5996,
  "agine": 5997,
  "\u2581clothes": 5998,
  "plane": 5999,
  "\u2581tie": 6000,
  "istant": 6001,
  "\u2581specifying": 6002,
  "------": 6003,
  "\u2581transactions": 6004,
  ")):": 6005,
  "\u2581uncle": 6006,
  "\u2581reaches": 6007,
  "negative": 6008,
  "\u2581ride": 6009,
  "father": 6010,
  "\u2581gathered": 6011,
  "\u2581Buff": 6012,
  "\u2581myster": 6013,
  "\u2581ladies": 6014,
  "\u2581Ian": 6015,
  "\u2581soup": 6016,
  ")}(": 6017,
  "\u2581Stop": 6018,
  "\u2581bars": 6019,
  "\u2581household": 6020,
  "\u2581personally": 6021,
  "\u2581Thompson": 6022,
  "___": 6023,
  "\u2581promotion": 6024,
  "\u2581imply": 6025,
  "cluding": 6026,
  "\u2581Stewart": 6027,
  "iday": 6028,
  "orrow": 6029,
  "\u2581promised": 6030,
  "\u2581Define": 6031,
  "\u2581thinks": 6032,
  "compos": 6033,
  "\u2581zoo": 6034,
  "\u2581elli": 6035,
  "Jean": 6036,
  "inch": 6037,
  "\u2581soil": 6038,
  "\u2581hearing": 6039,
  "\u2581Ax": 6040,
  "usement": 6041,
  "\u2581goods": 6042,
  "\u2581representations": 6043,
  "\u2581pill": 6044,
  "Answer": 6045,
  "\u2581tennis": 6046,
  "\u2581circles": 6047,
  "\u2581bases": 6048,
  "\u2581registration": 6049,
  "third": 6050,
  "\u2581jet": 6051,
  "\u2581orch": 6052,
  "Martin": 6053,
  "\u2581containers": 6054,
  "Mo": 6055,
  ",(": 6056,
  "Weight": 6057,
  "\u2581Dak": 6058,
  "\u2581Assume": 6059,
  "\u2581gross": 6060,
  "\u2581entertain": 6061,
  "'.$": 6062,
  "]$.": 6063,
  "irus": 6064,
  "\u2581hills": 6065,
  "\u2581AA": 6066,
  "\u2581executive": 6067,
  "\u2581flying": 6068,
  "\u2581bitter": 6069,
  "\u2581pole": 6070,
  "\u2581foundation": 6071,
  "\u2581asympt": 6072,
  "\u2581summ": 6073,
  "prob": 6074,
  "loyment": 6075,
  "Station": 6076,
  "\u2581coinc": 6077,
  "arium": 6078,
  "\u2581similarly": 6079,
  "\u2581inches": 6080,
  "\u2581Josh": 6081,
  "\u2581Five": 6082,
  "\u2581employees": 6083,
  "his": 6084,
  "\u2581synd": 6085,
  "working": 6086,
  "\u2581Height": 6087,
  "Put": 6088,
  "\u2581beam": 6089,
  "\u2581Rect": 6090,
  "\u2581configurations": 6091,
  "\u2581gauge": 6092,
  "\u2581multiply": 6093,
  "\u2581joining": 6094,
  "\u2581distrib": 6095,
  "Sam": 6096,
  "\u2581alphabet": 6097,
  "\u2581steel": 6098,
  "\u2581presents": 6099,
  "\u2581trains": 6100,
  "Leg": 6101,
  "\u2581Jess": 6102,
  "\u2581lap": 6103,
  "\u2581casting": 6104,
  ")-\\": 6105,
  "\u2581printer": 6106,
  "follow": 6107,
  "\u2581Barry": 6108,
  "\u2581Americans": 6109,
  "Since": 6110,
  "\u2581Jerry": 6111,
  "heart": 6112,
  "cribed": 6113,
  "SW": 6114,
  "acon": 6115,
  "quot": 6116,
  "cycle": 6117,
  "\u2581painted": 6118,
  "\u2581suffering": 6119,
  "olate": 6120,
  "OH": 6121,
  "external": 6122,
  "Origin": 6123,
  "\u2581painter": 6124,
  "\u2581assigning": 6125,
  "\u2581subtract": 6126,
  "\u2581computers": 6127,
  "\u2581episodes": 6128,
  "\u2581estimation": 6129,
  "\u2581----": 6130,
  "\u2581Dean": 6131,
  "\u2581quit": 6132,
  "\u2581liked": 6133,
  "\u2581belonging": 6134,
  "\u2581facilities": 6135,
  "\u2581arithmetic": 6136,
  "\u2581gender": 6137,
  "\u2581expects": 6138,
  "\u2581Grace": 6139,
  "Face": 6140,
  "constant": 6141,
  "\u2581gallery": 6142,
  "\u2581DJ": 6143,
  "\u2581Ned": 6144,
  "\u2581hosting": 6145,
  "igs": 6146,
  "\u2581ticket": 6147,
  "\u2581studying": 6148,
  "\u2581designer": 6149,
  "\u2581informed": 6150,
  "\u2581intercept": 6151,
  "\u2581tired": 6152,
  "\u2581Beth": 6153,
  "\u2581tea": 6154,
  "\u2581scales": 6155,
  "\u2581approved": 6156,
  "})$.": 6157,
  "\u2581Month": 6158,
  "\u2581ocean": 6159,
  "\u2581anticip": 6160,
  "Circ": 6161,
  "mn": 6162,
  "\u2581brings": 6163,
  "\u2581NY": 6164,
  "\u2581budget": 6165,
  "spl": 6166,
  "aneous": 6167,
  "\u2581invited": 6168,
  "actly": 6169,
  "\u2581angles": 6170,
  "\u2581dock": 6171,
  "\u2581allocate": 6172,
  "\u2581Rach": 6173,
  "-----": 6174,
  "ouses": 6175,
  "Peter": 6176,
  "\u2581substitution": 6177,
  "\\}$.": 6178,
  "\u2581periods": 6179,
  "\u2581Frid": 6180,
  "compatible": 6181,
  "ppy": 6182,
  "^(": 6183,
  "\u2581tank": 6184,
  "\u2581Kate": 6185,
  "\u2581coverage": 6186,
  "\u2581Starting": 6187,
  "\u2581substitute": 6188,
  "\u2581Jenn": 6189,
  "\u2581cand": 6190,
  "\u2581inserting": 6191,
  "\u2581decrease": 6192,
  "\u2581Mall": 6193,
  "\u2581Luci": 6194,
  "nx": 6195,
  "\u2581loose": 6196,
  "\u2581varied": 6197,
  "umm": 6198,
  "\u2581Interest": 6199,
  "arith": 6200,
  "\u2581kilometer": 6201,
  "\u2581carriage": 6202,
  "))$": 6203,
  "Cur": 6204,
  "\u2581liquid": 6205,
  "\u2581choosing": 6206,
  "Side": 6207,
  "\u2581packets": 6208,
  "\u2581fingers": 6209,
  "\u2581acres": 6210,
  "\u2581indicating": 6211,
  "\u2581oldest": 6212,
  "\u2581recip": 6213,
  "\u2581mathematics": 6214,
  "\u2581reserve": 6215,
  "\u2581rent": 6216,
  "abeled": 6217,
  "+$": 6218,
  "\u2581Evans": 6219,
  "\u2581residents": 6220,
  "\u2581satisfying": 6221,
  "\u2581crossing": 6222,
  "\u2581ups": 6223,
  "\u2581allocation": 6224,
  "Michael": 6225,
  "\u2581injury": 6226,
  "\u2581lattice": 6227,
  "story": 6228,
  "Lar": 6229,
  "Lu": 6230,
  "\u2581Oak": 6231,
  "\u2581Theory": 6232,
  "\u2581movements": 6233,
  "\u2581Nancy": 6234,
  "\u2581islands": 6235,
  "\u2581Saturday": 6236,
  "\u2581Rick": 6237,
  "\u2581cave": 6238,
  "\u2581dozen": 6239,
  "\u2581diameter": 6240,
  "\u2581fires": 6241,
  "\u2581Parker": 6242,
  "\u2581Lucas": 6243,
  "andal": 6244,
  "\u2581pounds": 6245,
  "ordinates": 6246,
  "\u2581calculus": 6247,
  "\u2581coat": 6248,
  "\u2581solves": 6249,
  "\u2581}{": 6250,
  "\u2581restriction": 6251,
  "\u2581baby": 6252,
  "\u2581splitting": 6253,
  "\u2581boundaries": 6254,
  "plant": 6255,
  "DEF": 6256,
  "\u2581vehicles": 6257,
  "\u2581placing": 6258,
  "illed": 6259,
  "\u2581females": 6260,
  "rolled": 6261,
  "CM": 6262,
  "\u2581possibilities": 6263,
  "half": 6264,
  "\u2581wanting": 6265,
  "}{|": 6266,
  "Alt": 6267,
  "steps": 6268,
  "\u2581flows": 6269,
  "\u2581ping": 6270,
  "\u2581clusters": 6271,
  "\u2581earliest": 6272,
  "\u2581preference": 6273,
  "phr": 6274,
  "\u2581pocket": 6275,
  "perp": 6276,
  "worker": 6277,
  "\u2581emails": 6278,
  "\u2581distances": 6279,
  "\u2581segments": 6280,
  "\u2581arrangement": 6281,
  "\u2581ages": 6282,
  "\u2581polynomials": 6283,
  "xf": 6284,
  "\u2581botan": 6285,
  "Volume": 6286,
  "boards": 6287,
  "\u2581Steven": 6288,
  "Watch": 6289,
  "\u2581Stuart": 6290,
  "\u2581wings": 6291,
  "viv": 6292,
  "\u2581Abraham": 6293,
  "\u2581centered": 6294,
  "\u2581slash": 6295,
  "\u2581Pablo": 6296,
  "\u2581recovered": 6297,
  "\u2581zeros": 6298,
  "\u2581Sierra": 6299,
  "\u2581pressing": 6300,
  "icity": 6301,
  "\u2581accommod": 6302,
  "\u2581loan": 6303,
  "\u2581checkout": 6304,
  "\u2581assess": 6305,
  "\u2581radical": 6306,
  "\u2581streaming": 6307,
  "\u2581proceeded": 6308,
  "\u2581Speed": 6309,
  "\u2581orange": 6310,
  "\u2581silly": 6311,
  "\u2581statue": 6312,
  "\u2581diagn": 6313,
  "TB": 6314,
  "\u2581clin": 6315,
  "\u2581assemble": 6316,
  "\u2581slope": 6317,
  "\u2581Anim": 6318,
  "izza": 6319,
  "\u2581alternate": 6320,
  "\u2581fifteen": 6321,
  "WH": 6322,
  "mate": 6323,
  "\u2581trailing": 6324,
  ")--(": 6325,
  "\u2581Meanwhile": 6326,
  "\u2581grows": 6327,
  "\u2581restrictions": 6328,
  "\u2581drives": 6329,
  "Gre": 6330,
  "\u2581involve": 6331,
  "WIN": 6332,
  "central": 6333,
  "|$": 6334,
  "\u2581tens": 6335,
  "\u2581calculating": 6336,
  "athon": 6337,
  "\u2581stamp": 6338,
  "imming": 6339,
  "\u2581offices": 6340,
  "\u2581participated": 6341,
  "\u2581divid": 6342,
  "\u2581advis": 6343,
  "\u2581shook": 6344,
  "\u2581squares": 6345,
  "\u2581sentences": 6346,
  "\u2581males": 6347,
  "\u2581imped": 6348,
  "\u2581Pam": 6349,
  "\u2581SW": 6350,
  "\u2581surg": 6351,
  "\u2581reflected": 6352,
  "\u2581landing": 6353,
  "geon": 6354,
  "museum": 6355,
  "percent": 6356,
  "\u2581predicted": 6357,
  "ighed": 6358,
  "rams": 6359,
  "\u2581maintenance": 6360,
  "\u2581disappear": 6361,
  "\u2581favorite": 6362,
  "\u2581Ther": 6363,
  "\u2581overlap": 6364,
  "\u2581conject": 6365,
  "\u2581sums": 6366,
  "]$,": 6367,
  "odot": 6368,
  "\u2581stopping": 6369,
  "\u2581conjug": 6370,
  "\u2581independently": 6371,
  "\u2581Formula": 6372,
  "\u2581designs": 6373,
  "\u2581Grey": 6374,
  "\u2581Give": 6375,
  "\u2581\u20ac": 6376,
  "\u2581moth": 6377,
  "\u2581craft": 6378,
  "\u2581tips": 6379,
  "\u2581tx": 6380,
  "\u2581exterior": 6381,
  "Si": 6382,
  "arded": 6383,
  "\u2581Haz": 6384,
  "\u2581renov": 6385,
  "\u2581convinced": 6386,
  "\u2581humans": 6387,
  "\u2581abc": 6388,
  "addy": 6389,
  "folio": 6390,
  "\u2581exponential": 6391,
  "\u2581Inner": 6392,
  "\u2581subscription": 6393,
  "\u2581beach": 6394,
  "\u2581organizations": 6395,
  "\u2581stones": 6396,
  "Cost": 6397,
  "\u2581cycles": 6398,
  "\u2581veter": 6399,
  "\u2581omitted": 6400,
  "\u2581shapes": 6401,
  "Phys": 6402,
  "ancer": 6403,
  "External": 6404,
  "\u2581intersect": 6405,
  "\u2581divisions": 6406,
  "\u2581tile": 6407,
  "\u2581quadratic": 6408,
  "\u2581Susan": 6409,
  "\u2581examine": 6410,
  "ashed": 6411,
  "$),": 6412,
  "ilda": 6413,
  "AU": 6414,
  "\u2581sixth": 6415,
  "\u2581basket": 6416,
  "\u2581eigenvalues": 6417,
  "consum": 6418,
  "\u2581$|\\": 6419,
  "\u2581nick": 6420,
  "changes": 6421,
  "\u2581waited": 6422,
  "\u2581Dow": 6423,
  "human": 6424,
  "\u2581repair": 6425,
  "Original": 6426,
  "\u2581breakfast": 6427,
  "bine": 6428,
  "\u2581lights": 6429,
  "\u2581burg": 6430,
  "\u2581Viv": 6431,
  "\u2581prices": 6432,
  "inside": 6433,
  "urger": 6434,
  "\u2581minus": 6435,
  "{.": 6436,
  "employee": 6437,
  "\u2581apple": 6438,
  "dog": 6439,
  "need": 6440,
  "digit": 6441,
  "\u2581joins": 6442,
  "\u2581Creating": 6443,
  "Once": 6444,
  "\u2581geometric": 6445,
  "cot": 6446,
  "\u2581Kit": 6447,
  "}}$.": 6448,
  "\u2581Natal": 6449,
  "\u2581switched": 6450,
  "\u2581celebrated": 6451,
  "\u2581preceding": 6452,
  "\u2581corn": 6453,
  "made": 6454,
  "\u2581pm": 6455,
  "\u2581dogs": 6456,
  "\u2581approximate": 6457,
  "\u2581kid": 6458,
  "\u2581Valent": 6459,
  "\u2581fuel": 6460,
  "\u2581commut": 6461,
  "dro": 6462,
  "\u2581Emma": 6463,
  "\u2581rescue": 6464,
  "\u2581sugar": 6465,
  "\u2581texts": 6466,
  "ected": 6467,
  "\u2581Turkey": 6468,
  "opus": 6469,
  "\u2581hearts": 6470,
  "\u2581Magic": 6471,
  "\u2581teles": 6472,
  "\u2581refuse": 6473,
  "acks": 6474,
  "\u2581Joy": 6475,
  "Every": 6476,
  "\u2581aged": 6477,
  "\u2581balls": 6478,
  "\u2581Complex": 6479,
  "\u2581drove": 6480,
  "\u2581gravit": 6481,
  "\u2581Camil": 6482,
  "Jan": 6483,
  "\u2581farther": 6484,
  "\u2581Seven": 6485,
  "\u2581mentions": 6486,
  "\u2581relax": 6487,
  "\u2581traces": 6488,
  "triangle": 6489,
  "incipal": 6490,
  "\u2581sheets": 6491,
  "pull": 6492,
  "\u2581manipulate": 6493,
  "\u2581crack": 6494,
  "\u2581formulas": 6495,
  "mile": 6496,
  "Take": 6497,
  "GG": 6498,
  "oop": 6499,
  "\u2581requiring": 6500,
  "comes": 6501,
  "ollar": 6502,
  "\u2581visitors": 6503,
  "axy": 6504,
  "\u2581reduces": 6505,
  "\u2581prize": 6506,
  "asha": 6507,
  "urrence": 6508,
  "cra": 6509,
  "ccc": 6510,
  "\u2581quantities": 6511,
  "adj": 6512,
  "\u2581contributed": 6513,
  "\u2581Hawai": 6514,
  "\u2581hopes": 6515,
  "\u2581coffee": 6516,
  "filled": 6517,
  ")})": 6518,
  "\u2581Larry": 6519,
  "\u2581solic": 6520,
  "\u2581Caroline": 6521,
  "\u2581corners": 6522,
  "\u2581amounts": 6523,
  "Jack": 6524,
  "arct": 6525,
  "mathop": 6526,
  "\u2581limitations": 6527,
  "\u2581offering": 6528,
  "\u2581Tommy": 6529,
  "\u2581Eva": 6530,
  "school": 6531,
  ",...,": 6532,
  "Calcul": 6533,
  "\u2581bush": 6534,
  "\u2581exhaust": 6535,
  "________________": 6536,
  "\u2581stays": 6537,
  "sections": 6538,
  "\u2581compress": 6539,
  "\u2581rabb": 6540,
  "\u2581participants": 6541,
  "\u2581restaurant": 6542,
  "\u2581Marina": 6543,
  "(|": 6544,
  "}}$,": 6545,
  "\u2581negoti": 6546,
  "\u2581longest": 6547,
  "\u2581Andre": 6548,
  "\u2581alco": 6549,
  "}}.": 6550,
  "\u2581Steph": 6551,
  "\u2581grouping": 6552,
  "\u2581milk": 6553,
  "keley": 6554,
  "etra": 6555,
  "\u2581denoted": 6556,
  "\u2581predictions": 6557,
  "\u2581Rule": 6558,
  "\u2581Kel": 6559,
  "\u2581teachers": 6560,
  "\u2581fork": 6561,
  "\u2581cleaner": 6562,
  "\u2581Marcus": 6563,
  "})$,": 6564,
  "\u2581eliminate": 6565,
  "\u2581saves": 6566,
  "Express": 6567,
  "Tw": 6568,
  "\u2581consumption": 6569,
  "\u2581dues": 6570,
  "Distance": 6571,
  "phantom": 6572,
  "larg": 6573,
  "\u2581lengths": 6574,
  "\u2581cattle": 6575,
  "Jul": 6576,
  "uclidean": 6577,
  "\u2581filling": 6578,
  "maxim": 6579,
  "\u2581dashed": 6580,
  "owel": 6581,
  "Seconds": 6582,
  "versary": 6583,
  "urchase": 6584,
  "\u2581Introduction": 6585,
  "HH": 6586,
  "\u2581analyze": 6587,
  "\u2581subsets": 6588,
  "\u2581doubles": 6589,
  "\u2581Nathan": 6590,
  "\u2581meat": 6591,
  "\u2581stayed": 6592,
  "\u2581Bin": 6593,
  "\u2581Bobby": 6594,
  "\u2581reducing": 6595,
  "\u2581Hog": 6596,
  "\u2581bath": 6597,
  "\u2581fee": 6598,
  "atisf": 6599,
  "\u2581DM": 6600,
  "ceil": 6601,
  "\u2581shelter": 6602,
  "\u2581mesh": 6603,
  "cludes": 6604,
  "\u2581pace": 6605,
  "\u2581sib": 6606,
  "ppings": 6607,
  "\u2581rolling": 6608,
  "\u2581selects": 6609,
  "\u2581fills": 6610,
  "irable": 6611,
  "\u2581axes": 6612,
  "\u2581Monday": 6613,
  "payment": 6614,
  "\u2581fixing": 6615,
  "\u2581grouped": 6616,
  "\u2581cone": 6617,
  "alling": 6618,
  "\u2581ranks": 6619,
  "\u2581contradict": 6620,
  "\u2581meters": 6621,
  "ebb": 6622,
  "\u2581volunte": 6623,
  "!}": 6624,
  "\u2581Less": 6625,
  "\u2581Salt": 6626,
  "\u2581shooting": 6627,
  "\u2581Circle": 6628,
  "Percent": 6629,
  "\u2581borrow": 6630,
  "\u2581Nin": 6631,
  "\u2581infinity": 6632,
  "pection": 6633,
  "%).": 6634,
  "\u2581redundant": 6635,
  "\u2581jack": 6636,
  "\u2581Gill": 6637,
  "\u2581supplies": 6638,
  "Donald": 6639,
  "\u2581Mason": 6640,
  "\u2581meets": 6641,
  "\u2581eleven": 6642,
  "\u2581Regin": 6643,
  "\u2581passengers": 6644,
  "+)": 6645,
  "\u2581orthogonal": 6646,
  "\u2581Half": 6647,
  "\u2581fewer": 6648,
  "\u2581flower": 6649,
  "cards": 6650,
  "apsed": 6651,
  "\u2581forcing": 6652,
  "\u2581toss": 6653,
  "\u2581dip": 6654,
  "\u2581cx": 6655,
  "\u2581cler": 6656,
  "\u2581rounded": 6657,
  "\u2581ded": 6658,
  "\u2581Root": 6659,
  "\u2581secretary": 6660,
  "\u2581presiden": 6661,
  "RU": 6662,
  "\u2581delivery": 6663,
  "\u2581Geoff": 6664,
  "six": 6665,
  "iffs": 6666,
  "\u2581stead": 6667,
  "\u2581amplitude": 6668,
  "know": 6669,
  "\u2581Sales": 6670,
  "\u2581giant": 6671,
  "bars": 6672,
  "}}=": 6673,
  "\u2581pulling": 6674,
  "\u2581repeatedly": 6675,
  "{|": 6676,
  "\u2581nominated": 6677,
  "\u2581freely": 6678,
  "intendo": 6679,
  "fif": 6680,
  "\u2581losses": 6681,
  "\u2581CP": 6682,
  "\u2581passenger": 6683,
  "\u2581membership": 6684,
  "gon": 6685,
  "\u2581dominant": 6686,
  "\u2581Amy": 6687,
  "\u2581downloading": 6688,
  "\\}$,": 6689,
  "market": 6690,
  "\u2581Ski": 6691,
  "\u2581appointment": 6692,
  "Three": 6693,
  "\u2581Kenneth": 6694,
  "rene": 6695,
  "xygen": 6696,
  "\u2581Lil": 6697,
  "\u2581brick": 6698,
  "\u2581procedures": 6699,
  "\u2581Richmond": 6700,
  "\u2581Compar": 6701,
  "\u2581withdraw": 6702,
  "\u2581wishes": 6703,
  "\u2581lamp": 6704,
  "\u2581inclusion": 6705,
  "\u2581approaching": 6706,
  "\u2581cube": 6707,
  "\u2581recre": 6708,
  "\u2581Friday": 6709,
  "villa": 6710,
  "\u2581repeating": 6711,
  "\u2581criter": 6712,
  "\u2581cheap": 6713,
  "\u2581rings": 6714,
  "\u2581Metropolitan": 6715,
  "\u2581conflicts": 6716,
  "\u2581Scroll": 6717,
  "})^": 6718,
  "\u2581cabin": 6719,
  "\u2581hect": 6720,
  "\u2581Lucy": 6721,
  "\u2581geomet": 6722,
  "\u2581guests": 6723,
  "\u2581exponent": 6724,
  "pmod": 6725,
  "\u2581runner": 6726,
  "ractor": 6727,
  "esters": 6728,
  "\u2581belonged": 6729,
  "\u2581bonus": 6730,
  "\u2581Edmund": 6731,
  "\u2581voting": 6732,
  "amsung": 6733,
  "\u2581backwards": 6734,
  "```": 6735,
  "\u2581cutting": 6736,
  "\u2581drums": 6737,
  "\u2581elim": 6738,
  "\u2581Fif": 6739,
  "\u2581Jefferson": 6740,
  "Setting": 6741,
  "\u2581Wend": 6742,
  "\u2581infinitely": 6743,
  "club": 6744,
  "\u2581Algorithm": 6745,
  "\u2581&=\\": 6746,
  "\u2581rolled": 6747,
  "\u2581Zach": 6748,
  "\u2581counted": 6749,
  "BD": 6750,
  "\u2581contribute": 6751,
  "yellow": 6752,
  "\u2581consume": 6753,
  "\u2581Ng": 6754,
  "\u2581kitchen": 6755,
  "\u2581exclusive": 6756,
  "\u2581funds": 6757,
  "\u2581tribes": 6758,
  "\u2581absent": 6759,
  "\u2581daughters": 6760,
  "odore": 6761,
  "\u2581Quint": 6762,
  "\u2581raising": 6763,
  "Mobile": 6764,
  "\u2581combining": 6765,
  "coordinate": 6766,
  "xty": 6767,
  "\u2581champions": 6768,
  "Den": 6769,
  "=&": 6770,
  "\u2581spare": 6771,
  "\u2581shares": 6772,
  "Bob": 6773,
  "ikes": 6774,
  "\u2581environmental": 6775,
  "meter": 6776,
  "*$": 6777,
  "\u2581unf": 6778,
  "\u2581Toy": 6779,
  "\u2581yard": 6780,
  "\u2581Lisa": 6781,
  "aser": 6782,
  "\u2581BB": 6783,
  "James": 6784,
  "ipes": 6785,
  "\u2581parentheses": 6786,
  "leaf": 6787,
  "\u2581terminate": 6788,
  "\u2581frequencies": 6789,
  ")}.": 6790,
  "\u2581mixture": 6791,
  "\u2581tribe": 6792,
  "\u2581listened": 6793,
  "|}{": 6794,
  "suit": 6795,
  "\u2581Pascal": 6796,
  "\u2581individually": 6797,
  "idia": 6798,
  "\u2581actors": 6799,
  "\u2581convenience": 6800,
  "\u2581Airlines": 6801,
  "\u2581sheep": 6802,
  "similar": 6803,
  "Expand": 6804,
  "\\).": 6805,
  "\u2581polygon": 6806,
  "\u2581eggs": 6807,
  "\u2581forec": 6808,
  "\u2581hunting": 6809,
  "\u2581chip": 6810,
  "\u2581proportional": 6811,
  "\u2581": 6812,
  "e": 6813,
  "t": 6814,
  "a": 6815,
  "i": 6816,
  "n": 6817,
  "o": 6818,
  "r": 6819,
  "s": 6820,
  "l": 6821,
  "d": 6822,
  "h": 6823,
  "c": 6824,
  "u": 6825,
  "m": 6826,
  "p": 6827,
  "g": 6828,
  "f": 6829,
  ".": 6830,
  "b": 6831,
  "y": 6832,
  ",": 6833,
  "w": 6834,
  "v": 6835,
  "k": 6836,
  "1": 6837,
  ")": 6838,
  "(": 6839,
  "-": 6840,
  "0": 6841,
  ":": 6842,
  "I": 6843,
  "S": 6844,
  "\\": 6845,
  "2": 6846,
  "C": 6847,
  "\"": 6848,
  "A": 6849,
  "T": 6850,
  "{": 6851,
  "}": 6852,
  "/": 6853,
  "'": 6854,
  "x": 6855,
  "_": 6856,
  "z": 6857,
  "=": 6858,
  "E": 6859,
  "M": 6860,
  "P": 6861,
  "j": 6862,
  "D": 6863,
  "9": 6864,
  "*": 6865,
  "L": 6866,
  "B": 6867,
  "R": 6868,
  ";": 6869,
  "#": 6870,
  "$": 6871,
  "q": 6872,
  "N": 6873,
  "3": 6874,
  "F": 6875,
  "5": 6876,
  "4": 6877,
  "8": 6878,
  "\u00e9": 6879,
  "O": 6880,
  "H": 6881,
  "6": 6882,
  "G": 6883,
  "7": 6884,
  "W": 6885,
  ">": 6886,
  "[": 6887,
  "]": 6888,
  "V": 6889,
  "U": 6890,
  "<": 6891,
  "J": 6892,
  "K": 6893,
  "?": 6894,
  "+": 6895,
  "Y": 6896,
  "Q": 6897,
  "^": 6898,
  "&": 6899,
  "|": 6900,
  "X": 6901,
  "!": 6902,
  "@": 6903,
  "%": 6904,
  "Z": 6905,
  "\u2019": 6906,
  "~": 6907,
  "\u2026": 6908,
  "\u2082": 6909,
  "\u200b": 6910,
  "\u00b3": 6911,
  "\u03c0": 6912,
  "\u20ac": 6913,
  "\u00b1": 6914,
  "\u221a": 6915,
  "\u2248": 6916,
  "\u2261": 6917,
  "\u00f7": 6918
}